{
  "version": "1.0",
  "truncation": null,
  "padding": null,
  "added_tokens": [
    {
      "id": 0,
      "content": "[PAD]",
      "single_word": false,
      "lstrip": false,
      "rstrip": false,
      "normalized": false,
      "special": true
    },
    {
      "id": 1,
      "content": "[UNK]",
      "single_word": false,
      "lstrip": false,
      "rstrip": false,
      "normalized": false,
      "special": true
    },
    {
      "id": 2,
      "content": "[CLS]",
      "single_word": false,
      "lstrip": false,
      "rstrip": false,
      "normalized": false,
      "special": true
    },
    {
      "id": 3,
      "content": "[SEP]",
      "single_word": false,
      "lstrip": false,
      "rstrip": false,
      "normalized": false,
      "special": true
    },
    {
      "id": 4,
      "content": "MASK",
      "single_word": false,
      "lstrip": false,
      "rstrip": false,
      "normalized": false,
      "special": true
    }
  ],
  "normalizer": null,
  "pre_tokenizer": {
    "type": "Whitespace"
  },
  "post_processor": null,
  "decoder": null,
  "model": {
    "type": "BPE",
    "dropout": null,
    "unk_token": "[UNK]",
    "continuing_subword_prefix": null,
    "end_of_word_suffix": null,
    "fuse_unk": false,
    "byte_fallback": false,
    "ignore_merges": false,
    "vocab": {
      "[PAD]": 0,
      "[UNK]": 1,
      "[CLS]": 2,
      "[SEP]": 3,
      "MASK": 4,
      "!": 5,
      "\"": 6,
      "#": 7,
      "$": 8,
      "%": 9,
      "&": 10,
      "'": 11,
      "(": 12,
      ")": 13,
      "*": 14,
      "+": 15,
      ",": 16,
      "-": 17,
      ".": 18,
      "/": 19,
      "0": 20,
      "1": 21,
      "2": 22,
      "3": 23,
      "4": 24,
      "5": 25,
      "6": 26,
      "7": 27,
      "8": 28,
      "9": 29,
      ":": 30,
      ";": 31,
      "<": 32,
      "=": 33,
      ">": 34,
      "?": 35,
      "@": 36,
      "A": 37,
      "B": 38,
      "C": 39,
      "D": 40,
      "E": 41,
      "F": 42,
      "G": 43,
      "H": 44,
      "I": 45,
      "J": 46,
      "K": 47,
      "L": 48,
      "M": 49,
      "N": 50,
      "O": 51,
      "P": 52,
      "Q": 53,
      "R": 54,
      "S": 55,
      "T": 56,
      "U": 57,
      "V": 58,
      "W": 59,
      "X": 60,
      "Y": 61,
      "Z": 62,
      "[": 63,
      "\\": 64,
      "]": 65,
      "^": 66,
      "_": 67,
      "`": 68,
      "a": 69,
      "b": 70,
      "c": 71,
      "d": 72,
      "e": 73,
      "f": 74,
      "g": 75,
      "h": 76,
      "i": 77,
      "j": 78,
      "k": 79,
      "l": 80,
      "m": 81,
      "n": 82,
      "o": 83,
      "p": 84,
      "q": 85,
      "r": 86,
      "s": 87,
      "t": 88,
      "u": 89,
      "v": 90,
      "w": 91,
      "x": 92,
      "y": 93,
      "z": 94,
      "{": 95,
      "}": 96,
      "~": 97,
      "": 98,
      "": 99,
      "": 100,
      "": 101,
      "": 102,
      "": 103,
      "": 104,
      "¡": 105,
      "¢": 106,
      "£": 107,
      "¤": 108,
      "¥": 109,
      "¦": 110,
      "§": 111,
      "¨": 112,
      "©": 113,
      "ª": 114,
      "¬": 115,
      "­": 116,
      "°": 117,
      "±": 118,
      "²": 119,
      "³": 120,
      "´": 121,
      "µ": 122,
      "¶": 123,
      "¹": 124,
      "º": 125,
      "»": 126,
      "¾": 127,
      "¿": 128,
      "À": 129,
      "Á": 130,
      "Â": 131,
      "Ã": 132,
      "Å": 133,
      "Æ": 134,
      "É": 135,
      "Ì": 136,
      "Í": 137,
      "Î": 138,
      "Õ": 139,
      "×": 140,
      "Ú": 141,
      "Ý": 142,
      "Þ": 143,
      "ß": 144,
      "à": 145,
      "á": 146,
      "â": 147,
      "ã": 148,
      "ä": 149,
      "å": 150,
      "æ": 151,
      "ç": 152,
      "è": 153,
      "é": 154,
      "ê": 155,
      "ë": 156,
      "ì": 157,
      "í": 158,
      "î": 159,
      "ï": 160,
      "ð": 161,
      "ñ": 162,
      "ò": 163,
      "ó": 164,
      "ô": 165,
      "õ": 166,
      "ö": 167,
      "÷": 168,
      "ø": 169,
      "ú": 170,
      "û": 171,
      "ü": 172,
      "ý": 173,
      "þ": 174,
      "Ā": 175,
      "ā": 176,
      "ă": 177,
      "č": 178,
      "Đ": 179,
      "ē": 180,
      "ė": 181,
      "ę": 182,
      "ğ": 183,
      "ī": 184,
      "ı": 185,
      "Ł": 186,
      "ń": 187,
      "ō": 188,
      "œ": 189,
      "Ś": 190,
      "ş": 191,
      "Š": 192,
      "š": 193,
      "ū": 194,
      "ŭ": 195,
      "ž": 196,
      "ˊ": 197,
      "˚": 198,
      "́": 199,
      "Α": 200,
      "Β": 201,
      "Ε": 202,
      "Ζ": 203,
      "Η": 204,
      "Ι": 205,
      "Κ": 206,
      "Μ": 207,
      "Ν": 208,
      "Ο": 209,
      "Ρ": 210,
      "Τ": 211,
      "Υ": 212,
      "Χ": 213,
      "ά": 214,
      "ί": 215,
      "α": 216,
      "γ": 217,
      "ε": 218,
      "η": 219,
      "θ": 220,
      "κ": 221,
      "λ": 222,
      "μ": 223,
      "ν": 224,
      "ο": 225,
      "ρ": 226,
      "ς": 227,
      "τ": 228,
      "φ": 229,
      "ύ": 230,
      "Ѕ": 231,
      "Ј": 232,
      "А": 233,
      "Б": 234,
      "В": 235,
      "Г": 236,
      "Д": 237,
      "Е": 238,
      "И": 239,
      "К": 240,
      "М": 241,
      "Н": 242,
      "О": 243,
      "П": 244,
      "Р": 245,
      "С": 246,
      "У": 247,
      "Х": 248,
      "Ч": 249,
      "Э": 250,
      "Я": 251,
      "а": 252,
      "б": 253,
      "в": 254,
      "г": 255,
      "д": 256,
      "е": 257,
      "ж": 258,
      "з": 259,
      "и": 260,
      "й": 261,
      "к": 262,
      "л": 263,
      "м": 264,
      "н": 265,
      "о": 266,
      "п": 267,
      "р": 268,
      "с": 269,
      "т": 270,
      "у": 271,
      "х": 272,
      "ц": 273,
      "ч": 274,
      "ы": 275,
      "ь": 276,
      "я": 277,
      "ѕ": 278,
      "і": 279,
      "ј": 280,
      "آ": 281,
      "ئ": 282,
      "ا": 283,
      "ب": 284,
      "ة": 285,
      "ت": 286,
      "ج": 287,
      "ح": 288,
      "خ": 289,
      "د": 290,
      "ر": 291,
      "ز": 292,
      "س": 293,
      "ش": 294,
      "غ": 295,
      "ف": 296,
      "ق": 297,
      "ك": 298,
      "ل": 299,
      "م": 300,
      "ن": 301,
      "ه": 302,
      "و": 303,
      "ي": 304,
      "ٌ": 305,
      "چ": 306,
      "ک": 307,
      "گ": 308,
      "ی": 309,
      "ं": 310,
      "आ": 311,
      "इ": 312,
      "ई": 313,
      "ऊ": 314,
      "औ": 315,
      "ख": 316,
      "ग": 317,
      "च": 318,
      "ड": 319,
      "ढ": 320,
      "ण": 321,
      "द": 322,
      "न": 323,
      "प": 324,
      "ब": 325,
      "भ": 326,
      "म": 327,
      "र": 328,
      "ल": 329,
      "व": 330,
      "श": 331,
      "स": 332,
      "ह": 333,
      "़": 334,
      "ा": 335,
      "ि": 336,
      "ी": 337,
      "ु": 338,
      "ू": 339,
      "े": 340,
      "ो": 341,
      "्": 342,
      "ক": 343,
      "গ": 344,
      "চ": 345,
      "ট": 346,
      "ঢ": 347,
      "ত": 348,
      "ম": 349,
      "র": 350,
      "ল": 351,
      "া": 352,
      "্": 353,
      "ਂ": 354,
      "ਗ": 355,
      "ਚ": 356,
      "ਡ": 357,
      "ਦ": 358,
      "ਨ": 359,
      "ਲ": 360,
      "ਵ": 361,
      "ਹ": 362,
      "ਿ": 363,
      "ੀ": 364,
      "੍": 365,
      "ੜ": 366,
      "ੰ": 367,
      "ੱ": 368,
      "ગ": 369,
      "ન": 370,
      "ભ": 371,
      "ર": 372,
      "વ": 373,
      "ા": 374,
      "ନ": 375,
      "ବ": 376,
      "ଭ": 377,
      "ର": 378,
      "ଶ": 379,
      "ୁ": 380,
      "େ": 381,
      "୍": 382,
      "க": 383,
      "ச": 384,
      "த": 385,
      "ன": 386,
      "ப": 387,
      "ம": 388,
      "ய": 389,
      "ர": 390,
      "ள": 391,
      "ா": 392,
      "ி": 393,
      "ு": 394,
      "ூ": 395,
      "ெ": 396,
      "ை": 397,
      "ோ": 398,
      "்": 399,
      "ം": 400,
      "ത": 401,
      "ന": 402,
      "പ": 403,
      "ര": 404,
      "വ": 405,
      "ി": 406,
      "ു": 407,
      "്": 408,
      "ก": 409,
      "ง": 410,
      "ท": 411,
      "พ": 412,
      "ร": 413,
      "ฯ": 414,
      "ุ": 415,
      "เ": 416,
      "ầ": 417,
      "ứ": 418,
      "ỳ": 419,
      "​": 420,
      "‎": 421,
      "‒": 422,
      "–": 423,
      "—": 424,
      "―": 425,
      "‘": 426,
      "’": 427,
      "‚": 428,
      "“": 429,
      "”": 430,
      "•": 431,
      "…": 432,
      "⁻": 433,
      "€": 434,
      "™": 435,
      "←": 436,
      "→": 437,
      "−": 438,
      "∶": 439,
      "♪": 440,
      "♫": 441,
      "♬": 442,
      "上": 443,
      "么": 444,
      "乌": 445,
      "仔": 446,
      "兰": 447,
      "冰": 448,
      "加": 449,
      "北": 450,
      "南": 451,
      "原": 452,
      "厦": 453,
      "合": 454,
      "哈": 455,
      "士": 456,
      "天": 457,
      "太": 458,
      "威": 459,
      "宁": 460,
      "安": 461,
      "尔": 462,
      "州": 463,
      "庆": 464,
      "忌": 465,
      "成": 466,
      "日": 467,
      "昆": 468,
      "明": 469,
      "春": 470,
      "月": 471,
      "木": 472,
      "杭": 473,
      "枚": 474,
      "武": 475,
      "氹": 476,
      "汉": 477,
      "沈": 478,
      "沙": 479,
      "津": 480,
      "济": 481,
      "海": 482,
      "滨": 483,
      "澳": 484,
      "眉": 485,
      "福": 486,
      "肥": 487,
      "臺": 488,
      "芒": 489,
      "茅": 490,
      "西": 491,
      "郑": 492,
      "都": 493,
      "重": 494,
      "长": 495,
      "门": 496,
      "阳": 497,
      "雄": 498,
      "高": 499,
      "鲁": 500,
      "齐": 501,
      "산": 502,
      "오": 503,
      "ﬁ": 504,
      "ﬂ": 505,
      "＃": 506,
      "�": 507,
      "an": 508,
      "er": 509,
      "in": 510,
      "ak": 511,
      "en": 512,
      "at": 513,
      "th": 514,
      "ar": 515,
      "ah": 516,
      "ou": 517,
      "ang": 518,
      "al": 519,
      "am": 520,
      "se": 521,
      "on": 522,
      "it": 523,
      "ya": 524,
      "di": 525,
      "or": 526,
      "as": 527,
      "me": 528,
      "the": 529,
      "un": 530,
      "ing": 531,
      "is": 532,
      "le": 533,
      "ap": 534,
      "ad": 535,
      "..": 536,
      "you": 537,
      "ke": 538,
      "kan": 539,
      "ti": 540,
      "to": 541,
      "re": 542,
      "ka": 543,
      "el": 544,
      "men": 545,
      "aya": 546,
      "ber": 547,
      "yang": 548,
      "il": 549,
      "ere": 550,
      "tu": 551,
      "and": 552,
      "es": 553,
      "us": 554,
      "ai": 555,
      "per": 556,
      "ow": 557,
      "akan": 558,
      "he": 559,
      "ve": 560,
      "ag": 561,
      "be": 562,
      "bu": 563,
      "ada": 564,
      "ter": 565,
      "eng": 566,
      "ay": 567,
      "hat": 568,
      "ed": 569,
      "aw": 570,
      "of": 571,
      "ot": 572,
      "...": 573,
      "et": 574,
      "ri": 575,
      "em": 576,
      "ku": 577,
      "dak": 578,
      "saya": 579,
      "li": 580,
      "au": 581,
      "ac": 582,
      "ari": 583,
      "nya": 584,
      "ab": 585,
      "lah": 586,
      "ir": 587,
      "dan": 588,
      "kam": 589,
      "aku": 590,
      "gh": 591,
      "ini": 592,
      "su": 593,
      "mem": 594,
      "apa": 595,
      "im": 596,
      "ro": 597,
      "for": 598,
      "st": 599,
      "itu": 600,
      "tak": 601,
      "lu": 602,
      "You": 603,
      "ereka": 604,
      "mu": 605,
      "that": 606,
      "bo": 607,
      "do": 608,
      "orang": 609,
      "ung": 610,
      "si": 611,
      "ch": 612,
      "uh": 613,
      "ver": 614,
      "Saya": 615,
      "ol": 616,
      "ur": 617,
      "ia": 618,
      "all": 619,
      "ita": 620,
      "ut": 621,
      "tidak": 622,
      "man": 623,
      "ahu": 624,
      "kamu": 625,
      "tuk": 626,
      "wh": 627,
      "deng": 628,
      "de": 629,
      "ome": 630,
      "ave": 631,
      "mereka": 632,
      "nd": 633,
      "um": 634,
      "pada": 635,
      "ght": 636,
      "dia": 637,
      "awak": 638,
      "untuk": 639,
      "alah": 640,
      "ja": 641,
      "lo": 642,
      "ik": 643,
      "leh": 644,
      "go": 645,
      "now": 646,
      "ain": 647,
      "Al": 648,
      "not": 649,
      "ce": 650,
      "dengan": 651,
      "meng": 652,
      "ih": 653,
      "we": 654,
      "He": 655,
      "anya": 656,
      "out": 657,
      "are": 658,
      "ent": 659,
      "kau": 660,
      "up": 661,
      "your": 662,
      "ne": 663,
      "ant": 664,
      "one": 665,
      "alam": 666,
      "ul": 667,
      "ld": 668,
      "om": 669,
      "this": 670,
      "sh": 671,
      "ill": 672,
      "The": 673,
      "wi": 674,
      "dari": 675,
      "ati": 676,
      "ama": 677,
      "od": 678,
      "id": 679,
      "ok": 680,
      "have": 681,
      "asa": 682,
      "angan": 683,
      "ong": 684,
      "here": 685,
      "pe": 686,
      "ust": 687,
      "agi": 688,
      "And": 689,
      "ck": 690,
      "Aku": 691,
      "my": 692,
      "gi": 693,
      "pa": 694,
      "ni": 695,
      "kita": 696,
      "dah": 697,
      "ell": 698,
      "can": 699,
      "ara": 700,
      "with": 701,
      "ju": 702,
      "Se": 703,
      "We": 704,
      "pen": 705,
      "ly": 706,
      "boleh": 707,
      "know": 708,
      "was": 709,
      "ould": 710,
      "Kam": 711,
      "ta": 712,
      "atu": 713,
      "anda": 714,
      "bel": 715,
      "ali": 716,
      "It": 717,
      "ll": 718,
      "Dan": 719,
      "thing": 720,
      "dalam": 721,
      "pat": 722,
      "What": 723,
      "aik": 724,
      "fi": 725,
      "Th": 726,
      "sa": 727,
      "ga": 728,
      "gu": 729,
      "tr": 730,
      "mak": 731,
      "any": 732,
      "Allah": 733,
      "du": 734,
      "tahu": 735,
      "kat": 736,
      "dap": 737,
      "what": 738,
      "api": 739,
      "bah": 740,
      "get": 741,
      "will": 742,
      "ind": 743,
      "amp": 744,
      "so": 745,
      "Ti": 746,
      "te": 747,
      "dapat": 748,
      "no": 749,
      "they": 750,
      "ana": 751,
      "end": 752,
      "Dia": 753,
      "mas": 754,
      "No": 755,
      "tel": 756,
      "Apa": 757,
      "don": 758,
      "ct": 759,
      "ther": 760,
      "ker": 761,
      "sel": 762,
      "ci": 763,
      "jadi": 764,
      "mana": 765,
      "kepada": 766,
      "wak": 767,
      "op": 768,
      "ack": 769,
      "him": 770,
      "na": 771,
      "semu": 772,
      "fe": 773,
      "rom": 774,
      "laku": 775,
      "her": 776,
      "kar": 777,
      "pas": 778,
      "them": 779,
      "wor": 780,
      "adalah": 781,
      "Wh": 782,
      "our": 783,
      "but": 784,
      "sini": 785,
      "Oh": 786,
      "telah": 787,
      "buat": 788,
      "right": 789,
      "pun": 790,
      "sed": 791,
      "ever": 792,
      "con": 793,
      "ry": 794,
      "ji": 795,
      "who": 796,
      "sen": 797,
      "ation": 798,
      "af": 799,
      "like": 800,
      "just": 801,
      "tem": 802,
      "Awak": 803,
      "ame": 804,
      "Kau": 805,
      "cu": 806,
      "seb": 807,
      "der": 808,
      "ting": 809,
      "some": 810,
      "ser": 811,
      "tion": 812,
      "there": 813,
      "pl": 814,
      "got": 815,
      "mat": 816,
      "Kami": 817,
      "kami": 818,
      "meny": 819,
      "mo": 820,
      "har": 821,
      "alu": 822,
      "pu": 823,
      "from": 824,
      "lagi": 825,
      "ate": 826,
      "want": 827,
      "ten": 828,
      "kay": 829,
      "nak": 830,
      "if": 831,
      "po": 832,
      "ink": 833,
      "art": 834,
      "bar": 835,
      "did": 836,
      "uk": 837,
      "enar": 838,
      "baik": 839,
      "bil": 840,
      "adi": 841,
      "ex": 842,
      "agai": 843,
      "min": 844,
      "alan": 845,
      "memb": 846,
      "That": 847,
      "own": 848,
      "Tidak": 849,
      "ie": 850,
      "diri": 851,
      "lakukan": 852,
      "perlu": 853,
      "semua": 854,
      "about": 855,
      "ss": 856,
      "amat": 857,
      "ard": 858,
      "gal": 859,
      "Per": 860,
      "mer": 861,
      "Ya": 862,
      "est": 863,
      "karang": 864,
      "com": 865,
      "In": 866,
      "av": 867,
      "ba": 868,
      "way": 869,
      "dat": 870,
      "ment": 871,
      "Ber": 872,
      "Ke": 873,
      "awa": 874,
      "pro": 875,
      "ses": 876,
      "Kita": 877,
      "ye": 878,
      "come": 879,
      "int": 880,
      "ic": 881,
      "time": 882,
      "lihat": 883,
      "pergi": 884,
      "But": 885,
      "bih": 886,
      "luar": 887,
      "has": 888,
      "perti": 889,
      "satu": 890,
      "Tak": 891,
      "ally": 892,
      "Ini": 893,
      "This": 894,
      "had": 895,
      "see": 896,
      "qu": 897,
      "ken": 898,
      "think": 899,
      "back": 900,
      "ase": 901,
      "peng": 902,
      "his": 903,
      "pan": 904,
      "gun": 905,
      "ess": 906,
      "ail": 907,
      "ine": 908,
      "beri": 909,
      "bukan": 910,
      "seorang": 911,
      "oleh": 912,
      "dis": 913,
      "ep": 914,
      "ound": 915,
      "la": 916,
      "bi": 917,
      "led": 918,
      "Hey": 919,
      "Itu": 920,
      "say": 921,
      "day": 922,
      "sama": 923,
      "Ye": 924,
      "lebih": 925,
      "kin": 926,
      "ore": 927,
      "by": 928,
      "Sh": 929,
      "So": 930,
      "ungg": 931,
      "kata": 932,
      "gr": 933,
      "ose": 934,
      "masa": 935,
      "hid": 936,
      "sai": 937,
      "00": 938,
      "ity": 939,
      "ort": 940,
      "Kamu": 941,
      "Be": 942,
      "ace": 943,
      "gon": 944,
      "ast": 945,
      "mb": 946,
      "ger": 947,
      "emb": 948,
      "age": 949,
      "pre": 950,
      "alau": 951,
      "hari": 952,
      "benar": 953,
      "ge": 954,
      "ungguh": 955,
      "cak": 956,
      "Do": 957,
      "Yeah": 958,
      "need": 959,
      "gonna": 960,
      "pul": 961,
      "Ch": 962,
      "tul": 963,
      "asi": 964,
      "inya": 965,
      "kali": 966,
      "mahu": 967,
      "ven": 968,
      "lain": 969,
      "wa": 970,
      "seperti": 971,
      "menjadi": 972,
      "emu": 973,
      "sudah": 974,
      "ila": 975,
      "Di": 976,
      "datang": 977,
      "They": 978,
      "sp": 979,
      "going": 980,
      "let": 981,
      "Mereka": 982,
      "da": 983,
      "Bu": 984,
      "when": 985,
      "atau": 986,
      "would": 987,
      "aran": 988,
      "wan": 989,
      "Ia": 990,
      "pad": 991,
      "good": 992,
      "down": 993,
      "bat": 994,
      "uhan": 995,
      "ungkin": 996,
      "mati": 997,
      "Go": 998,
      "co": 999,
      "ank": 1000,
      "ek": 1001,
      "ikir": 1002,
      "Anda": 1003,
      "lalu": 1004,
      "ru": 1005,
      "tur": 1006,
      "were": 1007,
      "Ter": 1008,
      ".\"": 1009,
      "dy": 1010,
      "bagi": 1011,
      "cakap": 1012,
      "Okay": 1013,
      "ist": 1014,
      "ight": 1015,
      "sekarang": 1016,
      "ma": 1017,
      "keluar": 1018,
      "wo": 1019,
      "Tapi": 1020,
      "been": 1021,
      "dit": 1022,
      "Jangan": 1023,
      "juga": 1024,
      "Lo": 1025,
      "anak": 1026,
      "kah": 1027,
      "their": 1028,
      "ungguhnya": 1029,
      "),": 1030,
      "ian": 1031,
      "tah": 1032,
      "Si": 1033,
      "suatu": 1034,
      "hen": 1035,
      "uck": 1036,
      "kap": 1037,
      "ble": 1038,
      "aki": 1039,
      "arkan": 1040,
      "br": 1041,
      "sang": 1042,
      "old": 1043,
      "ima": 1044,
      "pr": 1045,
      "pel": 1046,
      "unuh": 1047,
      "Come": 1048,
      "ty": 1049,
      "agaimana": 1050,
      "jalan": 1051,
      "nah": 1052,
      "other": 1053,
      "take": 1054,
      "ika": 1055,
      "If": 1056,
      "hidup": 1057,
      "look": 1058,
      "ful": 1059,
      "ers": 1060,
      "key": 1061,
      "aha": 1062,
      "ous": 1063,
      "ord": 1064,
      "Un": 1065,
      "mad": 1066,
      "ple": 1067,
      "cau": 1068,
      "cre": 1069,
      "beg": 1070,
      "God": 1071,
      "ople": 1072,
      "sy": 1073,
      "hanya": 1074,
      "How": 1075,
      "kas": 1076,
      "Well": 1077,
      "Mak": 1078,
      "could": 1079,
      "ny": 1080,
      "Su": 1081,
      "sti": 1082,
      "mengh": 1083,
      "jika": 1084,
      "tet": 1085,
      "top": 1086,
      "then": 1087,
      "All": 1088,
      "she": 1089,
      "There": 1090,
      "ilih": 1091,
      "saja": 1092,
      "vi": 1093,
      "every": 1094,
      "hel": 1095,
      "Ay": 1096,
      "able": 1097,
      "hu": 1098,
      "hap": 1099,
      "son": 1100,
      "dua": 1101,
      "St": 1102,
      "ough": 1103,
      "fir": 1104,
      "itahu": 1105,
      "entang": 1106,
      "angg": 1107,
      "sesuatu": 1108,
      "Tuhan": 1109,
      "off": 1110,
      "Let": 1111,
      "ob": 1112,
      "siapa": 1113,
      "En": 1114,
      "tempat": 1115,
      "Jadi": 1116,
      "Ma": 1117,
      "alk": 1118,
      "ish": 1119,
      "hir": 1120,
      "Don": 1121,
      "sana": 1122,
      "people": 1123,
      "belum": 1124,
      "over": 1125,
      "bang": 1126,
      "fikir": 1127,
      "Is": 1128,
      "ayah": 1129,
      "more": 1130,
      "anc": 1131,
      "said": 1132,
      "ho": 1133,
      "ich": 1134,
      "punya": 1135,
      "pak": 1136,
      "long": 1137,
      "those": 1138,
      "tle": 1139,
      "mis": 1140,
      "bes": 1141,
      "air": 1142,
      "Who": 1143,
      "arah": 1144,
      "kerana": 1145,
      "pi": 1146,
      "very": 1147,
      "tell": 1148,
      "ambil": 1149,
      "how": 1150,
      "sangat": 1151,
      "rasa": 1152,
      "ans": 1153,
      "should": 1154,
      "Le": 1155,
      "kannya": 1156,
      "where": 1157,
      "ked": 1158,
      "cause": 1159,
      "tapi": 1160,
      "atan": 1161,
      "put": 1162,
      "work": 1163,
      "mel": 1164,
      "bal": 1165,
      "anyak": 1166,
      "Re": 1167,
      "bur": 1168,
      "kit": 1169,
      "She": 1170,
      "cer": 1171,
      "read": 1172,
      "My": 1173,
      "only": 1174,
      "par": 1175,
      "aj": 1176,
      "oun": 1177,
      "uan": 1178,
      "os": 1179,
      "fore": 1180,
      "pernah": 1181,
      "iti": 1182,
      "guy": 1183,
      "betul": 1184,
      "\".": 1185,
      "Li": 1186,
      "gn": 1187,
      "make": 1188,
      "--": 1189,
      "rang": 1190,
      "reat": 1191,
      "melihat": 1192,
      "unggu": 1193,
      "new": 1194,
      "juk": 1195,
      "car": 1196,
      "set": 1197,
      "sele": 1198,
      "tentang": 1199,
      "oh": 1200,
      "annya": 1201,
      "ingin": 1202,
      "pem": 1203,
      "too": 1204,
      "dengar": 1205,
      ").": 1206,
      "lit": 1207,
      "okay": 1208,
      "De": 1209,
      "spe": 1210,
      "beritahu": 1211,
      "kerja": 1212,
      "ach": 1213,
      "dr": 1214,
      "Jika": 1215,
      "Adak": 1216,
      "les": 1217,
      "Adakah": 1218,
      "does": 1219,
      "ree": 1220,
      "baru": 1221,
      "tan": 1222,
      "mp": 1223,
      "sup": 1224,
      "antu": 1225,
      "ata": 1226,
      "ves": 1227,
      "Baik": 1228,
      "something": 1229,
      "low": 1230,
      "bet": 1231,
      "kemb": 1232,
      "cara": 1233,
      "Why": 1234,
      "Ken": 1235,
      "ampak": 1236,
      "ont": 1237,
      "Yes": 1238,
      "banyak": 1239,
      "name": 1240,
      "main": 1241,
      "belie": 1242,
      "az": 1243,
      "orry": 1244,
      "ip": 1245,
      "cari": 1246,
      "dian": 1247,
      "sendiri": 1248,
      "An": 1249,
      "again": 1250,
      "fol": 1251,
      "sedang": 1252,
      "pal": 1253,
      "asan": 1254,
      "jum": 1255,
      "mungkin": 1256,
      "apan": 1257,
      "may": 1258,
      "kasih": 1259,
      "Ada": 1260,
      "ira": 1261,
      "fuck": 1262,
      "melakukan": 1263,
      "masuk": 1264,
      "sion": 1265,
      "didn": 1266,
      "ning": 1267,
      "mi": 1268,
      "salah": 1269,
      "atas": 1270,
      "Get": 1271,
      "anti": 1272,
      "act": 1273,
      "ff": 1274,
      "ilah": 1275,
      "pt": 1276,
      "bab": 1277,
      "sure": 1278,
      "help": 1279,
      "cal": 1280,
      "olong": 1281,
      "daripada": 1282,
      "akhir": 1283,
      "ingat": 1284,
      "fri": 1285,
      "ars": 1286,
      "love": 1287,
      "tiap": 1288,
      "lef": 1289,
      "ather": 1290,
      "ction": 1291,
      "mendapat": 1292,
      "Nya": 1293,
      "Men": 1294,
      "red": 1295,
      "kembali": 1296,
      "dem": 1297,
      "hi": 1298,
      "hati": 1299,
      "try": 1300,
      "berapa": 1301,
      "ought": 1302,
      "ite": 1303,
      "acam": 1304,
      "hal": 1305,
      "Meng": 1306,
      "talk": 1307,
      "never": 1308,
      "find": 1309,
      "nama": 1310,
      "Ar": 1311,
      "aham": 1312,
      "masih": 1313,
      "really": 1314,
      "Can": 1315,
      "self": 1316,
      "selamat": 1317,
      "wr": 1318,
      "under": 1319,
      "laki": 1320,
      "port": 1321,
      "kara": 1322,
      "fail": 1323,
      "maka": 1324,
      "harus": 1325,
      "give": 1326,
      "Hel": 1327,
      "bung": 1328,
      "tahun": 1329,
      "sur": 1330,
      "Now": 1331,
      "perc": 1332,
      "begitu": 1333,
      "punyai": 1334,
      "Mo": 1335,
      "ner": 1336,
      "berlaku": 1337,
      "jangan": 1338,
      "mar": 1339,
      "body": 1340,
      "Where": 1341,
      "war": 1342,
      "rum": 1343,
      "before": 1344,
      "Are": 1345,
      "che": 1346,
      "besar": 1347,
      "Mr": 1348,
      "life": 1349,
      "Sel": 1350,
      "sekali": 1351,
      "aga": 1352,
      "bahawa": 1353,
      "sud": 1354,
      "believe": 1355,
      "tinggal": 1356,
      "kut": 1357,
      "Ses": 1358,
      "isi": 1359,
      "Just": 1360,
      "sesungguhnya": 1361,
      "into": 1362,
      "ki": 1363,
      "malam": 1364,
      "mempunyai": 1365,
      "Look": 1366,
      "lelaki": 1367,
      "je": 1368,
      "Semu": 1369,
      "happen": 1370,
      "turn": 1371,
      "usia": 1372,
      "sej": 1373,
      "stand": 1374,
      "Mar": 1375,
      "ori": 1376,
      "Lord": 1377,
      "uma": 1378,
      "agus": 1379,
      "ahan": 1380,
      "Hei": 1381,
      "To": 1382,
      "Mari": 1383,
      "kalau": 1384,
      "little": 1385,
      "call": 1386,
      "jan": 1387,
      "kawan": 1388,
      "makan": 1389,
      "perkara": 1390,
      "than": 1391,
      "two": 1392,
      "suka": 1393,
      "even": 1394,
      "ory": 1395,
      "uran": 1396,
      "mean": 1397,
      "Not": 1398,
      "cr": 1399,
      "unjuk": 1400,
      "takkan": 1401,
      "For": 1402,
      "Maaf": 1403,
      "Kenapa": 1404,
      "bert": 1405,
      "hand": 1406,
      "sebagai": 1407,
      "atakan": 1408,
      "memberi": 1409,
      "Bagaimana": 1410,
      "kill": 1411,
      "berkata": 1412,
      "doing": 1413,
      "str": 1414,
      "away": 1415,
      "Yang": 1416,
      "Ne": 1417,
      "pert": 1418,
      "mon": 1419,
      "pasti": 1420,
      "hil": 1421,
      "col": 1422,
      "hing": 1423,
      "friend": 1424,
      "tain": 1425,
      "des": 1426,
      "ahai": 1427,
      "bersama": 1428,
      "berada": 1429,
      "wat": 1430,
      "cle": 1431,
      "ving": 1432,
      "ris": 1433,
      "ass": 1434,
      "Bar": 1435,
      "sedi": 1436,
      "lease": 1437,
      "menj": 1438,
      "Sekarang": 1439,
      "etahu": 1440,
      "ide": 1441,
      "patut": 1442,
      "file": 1443,
      "Peng": 1444,
      "pin": 1445,
      "run": 1446,
      "ze": 1447,
      "unia": 1448,
      "membuat": 1449,
      "san": 1450,
      "aka": 1451,
      "after": 1452,
      "rumah": 1453,
      "row": 1454,
      "puan": 1455,
      "guna": 1456,
      "play": 1457,
      "bad": 1458,
      "sebelum": 1459,
      "bro": 1460,
      "serta": 1461,
      "Tiada": 1462,
      "gunakan": 1463,
      "ile": 1464,
      "lat": 1465,
      "ready": 1466,
      "cur": 1467,
      "ph": 1468,
      "Pen": 1469,
      "ask": 1470,
      "which": 1471,
      "ue": 1472,
      "won": 1473,
      "ily": 1474,
      "lan": 1475,
      "Ex": 1476,
      "nampak": 1477,
      "ick": 1478,
      "sebab": 1479,
      "tri": 1480,
      "res": 1481,
      "pos": 1482,
      "kun": 1483,
      "Bo": 1484,
      "Ayah": 1485,
      "henti": 1486,
      "tika": 1487,
      "'%": 1488,
      "these": 1489,
      "cuba": 1490,
      "iman": 1491,
      "much": 1492,
      "why": 1493,
      "tiada": 1494,
      "aman": 1495,
      "Deng": 1496,
      "ina": 1497,
      "lt": 1498,
      "Your": 1499,
      "awan": 1500,
      "amu": 1501,
      "sek": 1502,
      "Please": 1503,
      "ated": 1504,
      "member": 1505,
      "Bi": 1506,
      "must": 1507,
      "beli": 1508,
      "den": 1509,
      "ance": 1510,
      "jumpa": 1511,
      "Tet": 1512,
      "lepas": 1513,
      "abila": 1514,
      "At": 1515,
      "Pe": 1516,
      "Siapa": 1517,
      "sorry": 1518,
      "cho": 1519,
      "samp": 1520,
      "engkau": 1521,
      "lang": 1522,
      "Mas": 1523,
      "mus": 1524,
      "manusia": 1525,
      "ped": 1526,
      "part": 1527,
      "bit": 1528,
      "tuan": 1529,
      "tup": 1530,
      "still": 1531,
      "side": 1532,
      "Me": 1533,
      "first": 1534,
      "duk": 1535,
      "home": 1536,
      "place": 1537,
      "dunia": 1538,
      "ahkan": 1539,
      "well": 1540,
      "sem": 1541,
      "ton": 1542,
      "sir": 1543,
      "Baiklah": 1544,
      "cap": 1545,
      "fo": 1546,
      "ence": 1547,
      "enda": 1548,
      "terus": 1549,
      "masalah": 1550,
      "its": 1551,
      "pilih": 1552,
      "ubah": 1553,
      "Bukan": 1554,
      "night": 1555,
      "hendak": 1556,
      "Boleh": 1557,
      "land": 1558,
      "akah": 1559,
      "und": 1560,
      "bl": 1561,
      "world": 1562,
      "ket": 1563,
      "Sesungguhnya": 1564,
      "abi": 1565,
      "percaya": 1566,
      "made": 1567,
      "ikian": 1568,
      "kena": 1569,
      "gir": 1570,
      "Semua": 1571,
      "ear": 1572,
      "pula": 1573,
      "kemu": 1574,
      "10": 1575,
      "baw": 1576,
      "sak": 1577,
      "shall": 1578,
      "ds": 1579,
      "Ro": 1580,
      "keep": 1581,
      "lama": 1582,
      "cted": 1583,
      "ister": 1584,
      "kal": 1585,
      "xt": 1586,
      "beberapa": 1587,
      "padanya": 1588,
      "isten": 1589,
      "Then": 1590,
      "ialah": 1591,
      "bunuh": 1592,
      "sing": 1593,
      "kup": 1594,
      "Maha": 1595,
      "Kalau": 1596,
      "head": 1597,
      "Thank": 1598,
      "ive": 1599,
      "because": 1600,
      "ath": 1601,
      "When": 1602,
      "kh": 1603,
      "sin": 1604,
      "Tuan": 1605,
      "anything": 1606,
      "feel": 1607,
      "move": 1608,
      "kunci": 1609,
      "membunuh": 1610,
      "bor": 1611,
      "jah": 1612,
      "teng": 1613,
      "Terima": 1614,
      "thr": 1615,
      "jam": 1616,
      "mal": 1617,
      "ways": 1618,
      "Tolong": 1619,
      "band": 1620,
      "guys": 1621,
      "stop": 1622,
      "buah": 1623,
      "akut": 1624,
      "gan": 1625,
      "beriman": 1626,
      "Muh": 1627,
      "pet": 1628,
      "mil": 1629,
      "coun": 1630,
      "tic": 1631,
      "antara": 1632,
      "unya": 1633,
      "anggil": 1634,
      "wait": 1635,
      "ammad": 1636,
      "ror": 1637,
      "katakan": 1638,
      "things": 1639,
      "hingga": 1640,
      "janji": 1641,
      "Muhammad": 1642,
      "Mungkin": 1643,
      "cuma": 1644,
      "tik": 1645,
      "gel": 1646,
      "angkan": 1647,
      "girl": 1648,
      "tentu": 1649,
      "macam": 1650,
      "pol": 1651,
      "era": 1652,
      "impan": 1653,
      "Pro": 1654,
      "oney": 1655,
      "show": 1656,
      "dam": 1657,
      "boy": 1658,
      "ary": 1659,
      "Br": 1660,
      "ait": 1661,
      "bak": 1662,
      "yes": 1663,
      "inta": 1664,
      "bin": 1665,
      "gg": 1666,
      "ketika": 1667,
      "cil": 1668,
      "great": 1669,
      "ikut": 1670,
      "ev": 1671,
      "aikan": 1672,
      "chang": 1673,
      "please": 1674,
      "clo": 1675,
      "win": 1676,
      "shit": 1677,
      "):": 1678,
      "cont": 1679,
      "semula": 1680,
      "gas": 1681,
      "Good": 1682,
      "Pre": 1683,
      "antar": 1684,
      "Amer": 1685,
      "faham": 1686,
      "enti": 1687,
      "agian": 1688,
      "perlukan": 1689,
      "erem": 1690,
      "han": 1691,
      "mor": 1692,
      "father": 1693,
      "apkan": 1694,
      "last": 1695,
      "alat": 1696,
      "Gr": 1697,
      "Con": 1698,
      "buk": 1699,
      "bus": 1700,
      "Did": 1701,
      "sent": 1702,
      "kere": 1703,
      "ks": 1704,
      "ding": 1705,
      "coming": 1706,
      "mula": 1707,
      "bawah": 1708,
      "Nabi": 1709,
      "eli": 1710,
      "cri": 1711,
      "fin": 1712,
      "kid": 1713,
      "Pr": 1714,
      "better": 1715,
      "bagaimana": 1716,
      "segal": 1717,
      "sesiapa": 1718,
      "bercakap": 1719,
      "demikian": 1720,
      "ters": 1721,
      "gang": 1722,
      "Har": 1723,
      "sedikit": 1724,
      "thought": 1725,
      "On": 1726,
      "lic": 1727,
      "bagus": 1728,
      "ben": 1729,
      "uny": 1730,
      "pri": 1731,
      "mess": 1732,
      "told": 1733,
      "bila": 1734,
      "apabila": 1735,
      "aven": 1736,
      "lot": 1737,
      "erempuan": 1738,
      "use": 1739,
      "buka": 1740,
      "ons": 1741,
      "care": 1742,
      "start": 1743,
      "ered": 1744,
      "etahui": 1745,
      "ward": 1746,
      "most": 1747,
      "minta": 1748,
      "kur": 1749,
      "sebenar": 1750,
      "His": 1751,
      "gen": 1752,
      "kind": 1753,
      "kel": 1754,
      "years": 1755,
      "jang": 1756,
      "Mem": 1757,
      "mengambil": 1758,
      "tolong": 1759,
      "As": 1760,
      "bawa": 1761,
      "ouse": 1762,
      "keada": 1763,
      "ash": 1764,
      "done": 1765,
      "die": 1766,
      "around": 1767,
      "ely": 1768,
      "jen": 1769,
      "Ker": 1770,
      "tor": 1771,
      "supaya": 1772,
      "semasa": 1773,
      "sedia": 1774,
      "Hi": 1775,
      "plan": 1776,
      "benda": 1777,
      "tangan": 1778,
      "May": 1779,
      "mengen": 1780,
      "Ras": 1781,
      "inggal": 1782,
      "saha": 1783,
      "dir": 1784,
      "lam": 1785,
      "folder": 1786,
      "kum": 1787,
      "hear": 1788,
      "dar": 1789,
      "kemudian": 1790,
      "came": 1791,
      "ctor": 1792,
      "menu": 1793,
      "less": 1794,
      "Com": 1795,
      "....": 1796,
      "auh": 1797,
      "deed": 1798,
      "fucking": 1799,
      "bahagian": 1800,
      "fic": 1801,
      "wrong": 1802,
      "Dr": 1803,
      "Sam": 1804,
      "open": 1805,
      "left": 1806,
      "dead": 1807,
      "leave": 1808,
      "umber": 1809,
      "sign": 1810,
      "Ser": 1811,
      "cl": 1812,
      "elu": 1813,
      "through": 1814,
      "cor": 1815,
      "sahaja": 1816,
      "understand": 1817,
      "sia": 1818,
      "sayang": 1819,
      "form": 1820,
      "Man": 1821,
      "ice": 1822,
      "ukan": 1823,
      "Du": 1824,
      "perempuan": 1825,
      "found": 1826,
      "pes": 1827,
      "angkap": 1828,
      "Selamat": 1829,
      "Here": 1830,
      "wahai": 1831,
      "dre": 1832,
      "tetapi": 1833,
      "used": 1834,
      "urus": 1835,
      "kil": 1836,
      "FF": 1837,
      "nothing": 1838,
      "memang": 1839,
      "save": 1840,
      "cepat": 1841,
      "cut": 1842,
      "azab": 1843,
      "cour": 1844,
      "og": 1845,
      "balik": 1846,
      "ani": 1847,
      "hell": 1848,
      "mata": 1849,
      "blo": 1850,
      "Untuk": 1851,
      "kuasa": 1852,
      "fam": 1853,
      "nor": 1854,
      "ations": 1855,
      "ram": 1856,
      "mencari": 1857,
      "jak": 1858,
      "epat": 1859,
      "atkan": 1860,
      "mm": 1861,
      "gerak": 1862,
      "Ku": 1863,
      "Hello": 1864,
      "gur": 1865,
      "ault": 1866,
      "Lihat": 1867,
      "sampai": 1868,
      "minut": 1869,
      "comm": 1870,
      "lie": 1871,
      "light": 1872,
      "olah": 1873,
      "berj": 1874,
      "Sy": 1875,
      "Tunggu": 1876,
      "everything": 1877,
      "Or": 1878,
      "unyi": 1879,
      "maksud": 1880,
      "hur": 1881,
      "stay": 1882,
      "New": 1883,
      "ship": 1884,
      "\"%": 1885,
      "Set": 1886,
      "Tr": 1887,
      "yak": 1888,
      "ote": 1889,
      "ambah": 1890,
      "cik": 1891,
      "berikan": 1892,
      "cat": 1893,
      "cess": 1894,
      "reak": 1895,
      "tus": 1896,
      "belak": 1897,
      "IN": 1898,
      "One": 1899,
      "heart": 1900,
      "Some": 1901,
      "Dad": 1902,
      "kaum": 1903,
      "mind": 1904,
      "mener": 1905,
      "unjukkan": 1906,
      "bantu": 1907,
      "takut": 1908,
      "kecil": 1909,
      "keadaan": 1910,
      "iz": 1911,
      "lay": 1912,
      "ibu": 1913,
      "doesn": 1914,
      "vo": 1915,
      "City": 1916,
      "Ap": 1917,
      "ower": 1918,
      "Fr": 1919,
      "point": 1920,
      "Car": 1921,
      "ra": 1922,
      "always": 1923,
      "kereta": 1924,
      "real": 1925,
      "tetap": 1926,
      "maaf": 1927,
      "Am": 1928,
      "?\"": 1929,
      "Pergi": 1930,
      "segala": 1931,
      "Pem": 1932,
      "dire": 1933,
      "luk": 1934,
      "word": 1935,
      "Every": 1936,
      "Wait": 1937,
      "Joh": 1938,
      "rest": 1939,
      "inter": 1940,
      "Ad": 1941,
      "Tu": 1942,
      "Ayuh": 1943,
      "lur": 1944,
      "bir": 1945,
      "jo": 1946,
      "tua": 1947,
      "big": 1948,
      "hit": 1949,
      "ents": 1950,
      "mur": 1951,
      "doh": 1952,
      "paling": 1953,
      "mesti": 1954,
      "bis": 1955,
      "might": 1956,
      "bumi": 1957,
      "entu": 1958,
      "Fi": 1959,
      "cy": 1960,
      "pertama": 1961,
      "ject": 1962,
      "dur": 1963,
      "another": 1964,
      "lefon": 1965,
      "bring": 1966,
      "bas": 1967,
      "line": 1968,
      "Pas": 1969,
      "membawa": 1970,
      "nam": 1971,
      "buruk": 1972,
      "sho": 1973,
      "jut": 1974,
      "stu": 1975,
      "Orang": 1976,
      "arik": 1977,
      "kes": 1978,
      "fault": 1979,
      ");": 1980,
      "elas": 1981,
      "indow": 1982,
      "lap": 1983,
      "meet": 1984,
      "belakang": 1985,
      "mengetahui": 1986,
      "ture": 1987,
      "seseorang": 1988,
      "menye": 1989,
      "semuanya": 1990,
      "fight": 1991,
      "ham": 1992,
      "arch": 1993,
      "ness": 1994,
      "arang": 1995,
      "John": 1996,
      "AR": 1997,
      "idea": 1998,
      "gin": 1999,
      "Cepat": 2000,
      "pent": 2001,
      "brother": 2002,
      "being": 2003,
      "AN": 2004,
      "live": 2005,
      "memer": 2006,
      "many": 2007,
      "Hanya": 2008,
      "aca": 2009,
      "yeah": 2010,
      "ras": 2011,
      "til": 2012,
      "ts": 2013,
      "follow": 2014,
      "Ver": 2015,
      "kenal": 2016,
      "Right": 2017,
      "terlalu": 2018,
      "tera": 2019,
      "Could": 2020,
      "duduk": 2021,
      "money": 2022,
      "agal": 2023,
      "Tetapi": 2024,
      "remember": 2025,
      "20": 2026,
      "aid": 2027,
      "lik": 2028,
      "indung": 2029,
      "pemb": 2030,
      "awab": 2031,
      "mej": 2032,
      "tahan": 2033,
      "temu": 2034,
      "vel": 2035,
      "sebuah": 2036,
      "color": 2037,
      "oper": 2038,
      "hed": 2039,
      "Co": 2040,
      "saat": 2041,
      "best": 2042,
      "rah": 2043,
      "prom": 2044,
      "jud": 2045,
      "ajar": 2046,
      "cept": 2047,
      "OK": 2048,
      "fer": 2049,
      "setiap": 2050,
      "ampir": 2051,
      "three": 2052,
      "hadap": 2053,
      "cukup": 2054,
      "ffer": 2055,
      "iew": 2056,
      "already": 2057,
      "dulu": 2058,
      "Gu": 2059,
      "terjadi": 2060,
      "tru": 2061,
      "Sudah": 2062,
      "gam": 2063,
      "secara": 2064,
      "Nama": 2065,
      "jat": 2066,
      "tanpa": 2067,
      "Te": 2068,
      "val": 2069,
      "tions": 2070,
      "fun": 2071,
      "talking": 2072,
      "meninggal": 2073,
      "hon": 2074,
      "Of": 2075,
      "abar": 2076,
      "Sem": 2077,
      "Wi": 2078,
      "ping": 2079,
      "secon": 2080,
      "kenapa": 2081,
      "Betul": 2082,
      "Uh": 2083,
      "ala": 2084,
      "menyer": 2085,
      "gila": 2086,
      "dad": 2087,
      "Jo": 2088,
      "peri": 2089,
      "mother": 2090,
      "house": 2091,
      "selama": 2092,
      "ces": 2093,
      "rent": 2094,
      "pand": 2095,
      "atang": 2096,
      "job": 2097,
      "lum": 2098,
      "room": 2099,
      "family": 2100,
      "chil": 2101,
      "budak": 2102,
      "gotta": 2103,
      "embira": 2104,
      "Okey": 2105,
      "za": 2106,
      "happened": 2107,
      "hebat": 2108,
      "000": 2109,
      "ating": 2110,
      "tiga": 2111,
      "augh": 2112,
      "pur": 2113,
      "killed": 2114,
      "inst": 2115,
      "Ah": 2116,
      "senti": 2117,
      "fr": 2118,
      "kurang": 2119,
      "ates": 2120,
      "trying": 2121,
      "py": 2122,
      "ced": 2123,
      "terhadap": 2124,
      "Jack": 2125,
      "itan": 2126,
      "else": 2127,
      "while": 2128,
      "berjaya": 2129,
      "hor": 2130,
      "ms": 2131,
      "same": 2132,
      "att": 2133,
      "wanted": 2134,
      "aian": 2135,
      "course": 2136,
      "Col": 2137,
      "sim": 2138,
      "yet": 2139,
      "ling": 2140,
      "sehingga": 2141,
      "speci": 2142,
      "list": 2143,
      "terima": 2144,
      "empat": 2145,
      "tunggu": 2146,
      "panggil": 2147,
      "tif": 2148,
      "hold": 2149,
      "earth": 2150,
      "enough": 2151,
      "jata": 2152,
      "seen": 2153,
      "Cu": 2154,
      "ahulu": 2155,
      "aving": 2156,
      "looking": 2157,
      "Pilih": 2158,
      "amal": 2159,
      "fai": 2160,
      "seri": 2161,
      "sal": 2162,
      "ition": 2163,
      "mendengar": 2164,
      "ake": 2165,
      "biasa": 2166,
      "awal": 2167,
      "fine": 2168,
      "yourself": 2169,
      "polis": 2170,
      "jek": 2171,
      "jauh": 2172,
      "bodoh": 2173,
      "selalu": 2174,
      "Because": 2175,
      "50": 2176,
      "sk": 2177,
      "Char": 2178,
      "Lu": 2179,
      "face": 2180,
      "Au": 2181,
      "cip": 2182,
      "dike": 2183,
      "Take": 2184,
      "Our": 2185,
      "fu": 2186,
      "hilang": 2187,
      "perint": 2188,
      "mul": 2189,
      "Sir": 2190,
      "ator": 2191,
      "person": 2192,
      "someone": 2193,
      "itulah": 2194,
      "without": 2195,
      "dahulu": 2196,
      "sam": 2197,
      "wit": 2198,
      "berhenti": 2199,
      "number": 2200,
      "gether": 2201,
      "Maka": 2202,
      "ade": 2203,
      "today": 2204,
      "Ju": 2205,
      "Him": 2206,
      "ted": 2207,
      "ings": 2208,
      "rop": 2209,
      "atus": 2210,
      "lost": 2211,
      "ming": 2212,
      "keluarga": 2213,
      "Rasul": 2214,
      "Mu": 2215,
      "Satu": 2216,
      "sis": 2217,
      "next": 2218,
      "clear": 2219,
      "12": 2220,
      "getting": 2221,
      "turun": 2222,
      "uskan": 2223,
      "bulan": 2224,
      "Dengan": 2225,
      "ca": 2226,
      "saw": 2227,
      "pulang": 2228,
      "Kemu": 2229,
      "wanna": 2230,
      "menang": 2231,
      "isan": 2232,
      "tidur": 2233,
      "menur": 2234,
      "ayar": 2235,
      "ages": 2236,
      "lice": 2237,
      "tanya": 2238,
      "gar": 2239,
      "uang": 2240,
      "Dengar": 2241,
      "ited": 2242,
      "asy": 2243,
      "sentiasa": 2244,
      "berdua": 2245,
      "penuh": 2246,
      "ban": 2247,
      "kul": 2248,
      "waktu": 2249,
      "Dis": 2250,
      "sah": 2251,
      "Maybe": 2252,
      "took": 2253,
      "gre": 2254,
      "mendapatkan": 2255,
      "Apak": 2256,
      "sat": 2257,
      "mengatakan": 2258,
      "Kemudian": 2259,
      "rid": 2260,
      "memper": 2261,
      "tern": 2262,
      "Ste": 2263,
      "gl": 2264,
      "War": 2265,
      "lem": 2266,
      "keb": 2267,
      "data": 2268,
      "dara": 2269,
      "ingan": 2270,
      "Say": 2271,
      "together": 2272,
      "ko": 2273,
      "power": 2274,
      "Sa": 2275,
      "senjata": 2276,
      "Apakah": 2277,
      "bekerja": 2278,
      "terakhir": 2279,
      "11": 2280,
      "depan": 2281,
      "Move": 2282,
      "tar": 2283,
      "hubung": 2284,
      "memu": 2285,
      "ampu": 2286,
      "selesai": 2287,
      "listen": 2288,
      "promi": 2289,
      "Par": 2290,
      "minit": 2291,
      "Name": 2292,
      "isn": 2293,
      "iss": 2294,
      "peny": 2295,
      "hkan": 2296,
      "proble": 2297,
      "Show": 2298,
      "ques": 2299,
      "Maafkan": 2300,
      "char": 2301,
      "ion": 2302,
      "Mus": 2303,
      "against": 2304,
      "Quran": 2305,
      "Sorry": 2306,
      "sebenarnya": 2307,
      "gone": 2308,
      "hak": 2309,
      "hard": 2310,
      "Po": 2311,
      "bot": 2312,
      "tiba": 2313,
      "ayat": 2314,
      "sub": 2315,
      "tually": 2316,
      "ungan": 2317,
      "Qu": 2318,
      "mari": 2319,
      "ilik": 2320,
      "dri": 2321,
      "ago": 2322,
      "cop": 2323,
      "window": 2324,
      "pus": 2325,
      "bergerak": 2326,
      "lar": 2327,
      "Itulah": 2328,
      "Kerana": 2329,
      "\",": 2330,
      "Ralat": 2331,
      "loc": 2332,
      "Mengapa": 2333,
      "lear": 2334,
      "lumat": 2335,
      "ikan": 2336,
      "Kelu": 2337,
      "ley": 2338,
      "cipta": 2339,
      "wer": 2340,
      "vice": 2341,
      "truth": 2342,
      "pap": 2343,
      "days": 2344,
      "lab": 2345,
      "kepad": 2346,
      "pay": 2347,
      "door": 2348,
      "upon": 2349,
      "Stop": 2350,
      "hluk": 2351,
      "kafir": 2352,
      "tuju": 2353,
      "hour": 2354,
      "mpah": 2355,
      "kot": 2356,
      "ilai": 2357,
      "action": 2358,
      "ele": 2359,
      "gadis": 2360,
      "Fail": 2361,
      "telefon": 2362,
      "akannya": 2363,
      "went": 2364,
      "fire": 2365,
      "thank": 2366,
      "ayan": 2367,
      "Mer": 2368,
      "Macam": 2369,
      "tengok": 2370,
      "Amerika": 2371,
      "ones": 2372,
      "jenis": 2373,
      "neraka": 2374,
      "change": 2375,
      "Sele": 2376,
      "pintu": 2377,
      "aja": 2378,
      "harap": 2379,
      "cus": 2380,
      "ead": 2381,
      "kanak": 2382,
      "gram": 2383,
      "Pel": 2384,
      "Tur": 2385,
      "sus": 2386,
      "membantu": 2387,
      "jar": 2388,
      "ha": 2389,
      "Pap": 2390,
      "yg": 2391,
      "Tell": 2392,
      "als": 2393,
      "Have": 2394,
      "selur": 2395,
      "med": 2396,
      "swe": 2397,
      "melakukannya": 2398,
      "saying": 2399,
      "ingkap": 2400,
      "true": 2401,
      "embak": 2402,
      "Pat": 2403,
      "far": 2404,
      "okey": 2405,
      "mesej": 2406,
      "selves": 2407,
      "tanda": 2408,
      "Che": 2409,
      "rol": 2410,
      "ved": 2411,
      "penting": 2412,
      "knew": 2413,
      "send": 2414,
      "tol": 2415,
      "awat": 2416,
      "kad": 2417,
      "tun": 2418,
      "nanti": 2419,
      "patutnya": 2420,
      "cel": 2421,
      "Mi": 2422,
      "din": 2423,
      "kepadanya": 2424,
      "uru": 2425,
      "given": 2426,
      "bagai": 2427,
      "heard": 2428,
      "Give": 2429,
      "mengu": 2430,
      "kuat": 2431,
      "siap": 2432,
      "tive": 2433,
      "stem": 2434,
      "30": 2435,
      "pis": 2436,
      "pret": 2437,
      "Ok": 2438,
      "kebenar": 2439,
      "cannot": 2440,
      "hampir": 2441,
      "return": 2442,
      "Any": 2443,
      "watch": 2444,
      "ane": 2445,
      "mudah": 2446,
      "dest": 2447,
      "kom": 2448,
      "menggunakan": 2449,
      "makhluk": 2450,
      "break": 2451,
      "order": 2452,
      "langit": 2453,
      "ER": 2454,
      "dust": 2455,
      "ned": 2456,
      "ren": 2457,
      "apun": 2458,
      "such": 2459,
      "check": 2460,
      "jelas": 2461,
      "mengapa": 2462,
      "gembira": 2463,
      "anj": 2464,
      "differ": 2465,
      "baby": 2466,
      "kon": 2467,
      "agu": 2468,
      "Wahai": 2469,
      "mengenai": 2470,
      "Open": 2471,
      "selepas": 2472,
      "pass": 2473,
      "water": 2474,
      "bandar": 2475,
      "each": 2476,
      "mele": 2477,
      "lin": 2478,
      "nik": 2479,
      "Fol": 2480,
      "wanita": 2481,
      "mainan": 2482,
      "lalui": 2483,
      "eyes": 2484,
      "melain": 2485,
      "bilik": 2486,
      "melainkan": 2487,
      "Jen": 2488,
      "until": 2489,
      "Bagus": 2490,
      "gave": 2491,
      "situ": 2492,
      "els": 2493,
      "shot": 2494,
      "times": 2495,
      "command": 2496,
      "ither": 2497,
      "view": 2498,
      "pagi": 2499,
      "minutes": 2500,
      "Ac": 2501,
      "teruk": 2502,
      "mission": 2503,
      "fear": 2504,
      "panjang": 2505,
      "huh": 2506,
      "Maksud": 2507,
      "ID": 2508,
      "yakin": 2509,
      "vin": 2510,
      "ween": 2511,
      "sebut": 2512,
      "gara": 2513,
      "Er": 2514,
      "dekat": 2515,
      "tow": 2516,
      "hidupan": 2517,
      "both": 2518,
      "memberikan": 2519,
      "Je": 2520,
      "Mana": 2521,
      "known": 2522,
      "puter": 2523,
      "mun": 2524,
      "evers": 2525,
      "Pu": 2526,
      "ual": 2527,
      "Mon": 2528,
      "curi": 2529,
      "pilihan": 2530,
      "tikan": 2531,
      "ady": 2532,
      "_B": 2533,
      "indah": 2534,
      "See": 2535,
      "andar": 2536,
      "whole": 2537,
      "tinggi": 2538,
      "ason": 2539,
      "week": 2540,
      "Seperti": 2541,
      "knows": 2542,
      "pres": 2543,
      "tugas": 2544,
      "board": 2545,
      "bisa": 2546,
      "perintah": 2547,
      "sau": 2548,
      "matter": 2549,
      "book": 2550,
      "called": 2551,
      "terbaik": 2552,
      "penj": 2553,
      "hot": 2554,
      "problem": 2555,
      "mod": 2556,
      "also": 2557,
      "Ben": 2558,
      "cks": 2559,
      "Hai": 2560,
      "bag": 2561,
      "cul": 2562,
      "Cap": 2563,
      "Ho": 2564,
      "angat": 2565,
      "memberitahu": 2566,
      "between": 2567,
      "Biar": 2568,
      "high": 2569,
      "anyone": 2570,
      "sible": 2571,
      "biarkan": 2572,
      "sakit": 2573,
      "lari": 2574,
      "safe": 2575,
      "oup": 2576,
      "Em": 2577,
      "kahwin": 2578,
      "Day": 2579,
      "Nor": 2580,
      "hab": 2581,
      "text": 2582,
      "type": 2583,
      "Katakan": 2584,
      "inc": 2585,
      "sm": 2586,
      "alone": 2587,
      "lip": 2588,
      "Atau": 2589,
      "law": 2590,
      "ital": 2591,
      "ulang": 2592,
      "meninggalkan": 2593,
      "Listen": 2594,
      "Ibu": 2595,
      "fil": 2596,
      "kira": 2597,
      "load": 2598,
      "comp": 2599,
      "message": 2600,
      "menjadikan": 2601,
      "Dalam": 2602,
      "deal": 2603,
      "masing": 2604,
      "human": 2605,
      "Teng": 2606,
      "ditu": 2607,
      "terangan": 2608,
      "sembah": 2609,
      "king": 2610,
      "kepal": 2611,
      "iri": 2612,
      "tadi": 2613,
      "trust": 2614,
      "With": 2615,
      "city": 2616,
      "pulan": 2617,
      "isteri": 2618,
      "kebenaran": 2619,
      "Hu": 2620,
      "disini": 2621,
      "semb": 2622,
      "roy": 2623,
      "count": 2624,
      "imej": 2625,
      "bertemu": 2626,
      "Jam": 2627,
      "few": 2628,
      "jatuh": 2629,
      "friends": 2630,
      "rec": 2631,
      "Kit": 2632,
      "Will": 2633,
      "kapal": 2634,
      "bantuan": 2635,
      "ME": 2636,
      "error": 2637,
      "unan": 2638,
      "tenang": 2639,
      "(%": 2640,
      "ors": 2641,
      "speak": 2642,
      "cinta": 2643,
      "fur": 2644,
      "fied": 2645,
      "Wow": 2646,
      "eat": 2647,
      "kedua": 2648,
      "Fuck": 2649,
      "nes": 2650,
      "vis": 2651,
      "leep": 2652,
      "elamat": 2653,
      "osong": 2654,
      "cantik": 2655,
      "Mess": 2656,
      "iksa": 2657,
      "met": 2658,
      "death": 2659,
      "perang": 2660,
      "hilangan": 2661,
      "Op": 2662,
      "cah": 2663,
      "alog": 2664,
      "Mom": 2665,
      "sung": 2666,
      "wang": 2667,
      "ahli": 2668,
      "nyata": 2669,
      "chool": 2670,
      "inv": 2671,
      "agak": 2672,
      "cuse": 2673,
      "melalui": 2674,
      "buil": 2675,
      "blood": 2676,
      "wish": 2677,
      "ombor": 2678,
      "phone": 2679,
      "Sal": 2680,
      "Like": 2681,
      "ug": 2682,
      "believers": 2683,
      "eral": 2684,
      "digunakan": 2685,
      "jahat": 2686,
      "formation": 2687,
      "rel": 2688,
      "ext": 2689,
      "menerima": 2690,
      "keterangan": 2691,
      "mit": 2692,
      "wasn": 2693,
      "belah": 2694,
      "19": 2695,
      "ried": 2696,
      "vers": 2697,
      "abat": 2698,
      "Keluar": 2699,
      "seluruh": 2700,
      "fas": 2701,
      "sepatutnya": 2702,
      "leg": 2703,
      "hantar": 2704,
      "utama": 2705,
      "nice": 2706,
      "lihatan": 2707,
      "ments": 2708,
      "dress": 2709,
      "close": 2710,
      "ground": 2711,
      "Bl": 2712,
      "ef": 2713,
      "ingatlah": 2714,
      "net": 2715,
      "second": 2716,
      "demi": 2717,
      "morning": 2718,
      "trans": 2719,
      "sebarang": 2720,
      "hands": 2721,
      "bul": 2722,
      "akkan": 2723,
      "milik": 2724,
      "among": 2725,
      "Ing": 2726,
      "vil": 2727,
      "menger": 2728,
      "prote": 2729,
      "AT": 2730,
      "Help": 2731,
      "qui": 2732,
      "ouble": 2733,
      "janganlah": 2734,
      "hamba": 2735,
      "Ed": 2736,
      "kanlah": 2737,
      "Sebab": 2738,
      "ys": 2739,
      "prof": 2740,
      "inside": 2741,
      "means": 2742,
      "import": 2743,
      "kehidupan": 2744,
      "hope": 2745,
      "ING": 2746,
      "fall": 2747,
      "beh": 2748,
      "dapatkan": 2749,
      "Oleh": 2750,
      "ouch": 2751,
      "conne": 2752,
      "azy": 2753,
      "ranc": 2754,
      "once": 2755,
      "lead": 2756,
      "wife": 2757,
      "Masuk": 2758,
      "Tom": 2759,
      "daugh": 2760,
      "kehilangan": 2761,
      "fect": 2762,
      "Bel": 2763,
      "hether": 2764,
      "aut": 2765,
      "soon": 2766,
      "Sen": 2767,
      "Ab": 2768,
      "ingkar": 2769,
      "kej": 2770,
      "iness": 2771,
      "god": 2772,
      "year": 2773,
      "dosa": 2774,
      "allow": 2775,
      "Mal": 2776,
      "lak": 2777,
      "atch": 2778,
      "emp": 2779,
      "worry": 2780,
      "month": 2781,
      "valu": 2782,
      "heaven": 2783,
      "game": 2784,
      "buang": 2785,
      "balasan": 2786,
      "petunjuk": 2787,
      "pain": 2788,
      "van": 2789,
      "berfikir": 2790,
      "okong": 2791,
      "evil": 2792,
      "wu": 2793,
      "sit": 2794,
      "berjalan": 2795,
      "ork": 2796,
      "minum": 2797,
      "eld": 2798,
      "ump": 2799,
      "system": 2800,
      "gagal": 2801,
      "muka": 2802,
      "senar": 2803,
      "maybe": 2804,
      "menunggu": 2805,
      "kalah": 2806,
      "benarnya": 2807,
      "lock": 2808,
      "case": 2809,
      "rin": 2810,
      "lose": 2811,
      "selamatkan": 2812,
      "gent": 2813,
      "vide": 2814,
      "ring": 2815,
      "Bila": 2816,
      "become": 2817,
      "wouldn": 2818,
      "SA": 2819,
      "UR": 2820,
      "tom": 2821,
      "Buka": 2822,
      "Put": 2823,
      "sou": 2824,
      "tuhan": 2825,
      "Lalu": 2826,
      "ies": 2827,
      "figur": 2828,
      "tengah": 2829,
      "Gun": 2830,
      "image": 2831,
      "guess": 2832,
      "Bandar": 2833,
      "fast": 2834,
      "kg": 2835,
      "files": 2836,
      "anyalah": 2837,
      "Bro": 2838,
      "kanan": 2839,
      "kaki": 2840,
      "bersi": 2841,
      "awai": 2842,
      "imp": 2843,
      "ihan": 2844,
      "menurut": 2845,
      "Gen": 2846,
      "whom": 2847,
      "cuali": 2848,
      "ng": 2849,
      "path": 2850,
      "Sila": 2851,
      "mampu": 2852,
      "pretty": 2853,
      "Hari": 2854,
      "damn": 2855,
      "Mel": 2856,
      "walk": 2857,
      "working": 2858,
      "15": 2859,
      "Gre": 2860,
      "gera": 2861,
      "undang": 2862,
      "elcome": 2863,
      "alive": 2864,
      "Keep": 2865,
      "actly": 2866,
      "aren": 2867,
      "pasukan": 2868,
      "posed": 2869,
      "\"?": 2870,
      "adakah": 2871,
      "duit": 2872,
      "etapkan": 2873,
      "Vi": 2874,
      "late": 2875,
      "menemu": 2876,
      "five": 2877,
      "alaupun": 2878,
      "Bah": 2879,
      "menge": 2880,
      "bahaya": 2881,
      "buatan": 2882,
      "app": 2883,
      "senarai": 2884,
      "menarik": 2885,
      "jakan": 2886,
      "box": 2887,
      "Oli": 2888,
      "lawan": 2889,
      "scar": 2890,
      "emo": 2891,
      "drink": 2892,
      "berg": 2893,
      "lukan": 2894,
      "darah": 2895,
      "arat": 2896,
      "bed": 2897,
      "mine": 2898,
      "ramai": 2899,
      "enter": 2900,
      "dec": 2901,
      "Pak": 2902,
      "indeed": 2903,
      "Im": 2904,
      "sc": 2905,
      "brought": 2906,
      "len": 2907,
      "meminta": 2908,
      "pant": 2909,
      "beau": 2910,
      "gambar": 2911,
      "offi": 2912,
      "sound": 2913,
      "terbang": 2914,
      "format": 2915,
      "rak": 2916,
      "tusan": 2917,
      "shoot": 2918,
      "valid": 2919,
      "anger": 2920,
      "sum": 2921,
      "tetingkap": 2922,
      "Kitab": 2923,
      "rup": 2924,
      "crazy": 2925,
      "free": 2926,
      "ami": 2927,
      "says": 2928,
      "Sure": 2929,
      "ign": 2930,
      "unt": 2931,
      "maklumat": 2932,
      "Ge": 2933,
      "Got": 2934,
      "rat": 2935,
      "school": 2936,
      "Kap": 2937,
      "Error": 2938,
      "These": 2939,
      "wants": 2940,
      "makanan": 2941,
      "kepala": 2942,
      "Her": 2943,
      "Hold": 2944,
      "myself": 2945,
      "Whoa": 2946,
      "usaha": 2947,
      "cked": 2948,
      "barang": 2949,
      "hurt": 2950,
      "scre": 2951,
      "star": 2952,
      "everyone": 2953,
      "buku": 2954,
      "fa": 2955,
      "Dem": 2956,
      "four": 2957,
      "tal": 2958,
      "ond": 2959,
      "stre": 2960,
      "current": 2961,
      "kgm": 2962,
      "ft": 2963,
      "ianya": 2964,
      "kelihatan": 2965,
      "buh": 2966,
      "cky": 2967,
      "promise": 2968,
      "though": 2969,
      "sebahagian": 2970,
      "unkan": 2971,
      "Tengok": 2972,
      "haven": 2973,
      "jur": 2974,
      "sil": 2975,
      "urga": 2976,
      "dren": 2977,
      "naik": 2978,
      "rakan": 2979,
      "roll": 2980,
      "dengannya": 2981,
      "hey": 2982,
      "Dari": 2983,
      "resp": 2984,
      "rip": 2985,
      "Ten": 2986,
      "teman": 2987,
      "menyelamat": 2988,
      "meme": 2989,
      "tiful": 2990,
      "syen": 2991,
      "kepadamu": 2992,
      "Anak": 2993,
      "IS": 2994,
      "Pada": 2995,
      "Eng": 2996,
      "Folder": 2997,
      "Pad": 2998,
      "berat": 2999,
      "actually": 3000,
      "memilik": 3001,
      "behind": 3002,
      "Jes": 3003,
      "seem": 3004,
      "ished": 3005,
      "Nothing": 3006,
      "dream": 3007,
      "different": 3008,
      "daughter": 3009,
      "ison": 3010,
      "bermain": 3011,
      "cint": 3012,
      "Shit": 3013,
      "geri": 3014,
      "jalanan": 3015,
      "bably": 3016,
      "!\"": 3017,
      "Beritahu": 3018,
      "sistem": 3019,
      "using": 3020,
      "rancangan": 3021,
      "Ianya": 3022,
      "sleep": 3023,
      "berita": 3024,
      "peluang": 3025,
      "Bang": 3026,
      "unch": 3027,
      "tentera": 3028,
      "olo": 3029,
      "direct": 3030,
      "Dav": 3031,
      "buru": 3032,
      "full": 3033,
      "morrow": 3034,
      "nie": 3035,
      "aikat": 3036,
      "support": 3037,
      "ure": 3038,
      "selected": 3039,
      "Harry": 3040,
      "alian": 3041,
      "kekunci": 3042,
      "tinggalkan": 3043,
      "sungguh": 3044,
      "Nampak": 3045,
      "item": 3046,
      "tomorrow": 3047,
      "happy": 3048,
      "marah": 3049,
      "isah": 3050,
      "seksa": 3051,
      "Edit": 3052,
      "tit": 3053,
      "lion": 3054,
      "Lebih": 3055,
      "kiri": 3056,
      "sembunyi": 3057,
      "wujud": 3058,
      "anan": 3059,
      "ete": 3060,
      "ross": 3061,
      "town": 3062,
      "police": 3063,
      "question": 3064,
      "fav": 3065,
      "dipilih": 3066,
      "mene": 3067,
      "sid": 3068,
      "dirinya": 3069,
      "default": 3070,
      "Berapa": 3071,
      "date": 3072,
      "'.": 3073,
      "Cal": 3074,
      "berakhir": 3075,
      "ulis": 3076,
      "ided": 3077,
      "Those": 3078,
      "tas": 3079,
      "tau": 3080,
      "memas": 3081,
      "Cor": 3082,
      "uni": 3083,
      "certain": 3084,
      "teri": 3085,
      "tanah": 3086,
      "ica": 3087,
      "por": 3088,
      "unto": 3089,
      "lepaskan": 3090,
      "jaga": 3091,
      "alaman": 3092,
      "sekolah": 3093,
      "team": 3094,
      "Beli": 3095,
      "Dam": 3096,
      "font": 3097,
      "chance": 3098,
      "Tentu": 3099,
      "figu": 3100,
      "angkat": 3101,
      "diam": 3102,
      "business": 3103,
      "Fl": 3104,
      "warna": 3105,
      "later": 3106,
      "since": 3107,
      "asakan": 3108,
      "Semuanya": 3109,
      "easy": 3110,
      "apakah": 3111,
      "elah": 3112,
      "ls": 3113,
      "died": 3114,
      "menyem": 3115,
      "khabar": 3116,
      "Masa": 3117,
      "ainya": 3118,
      "pect": 3119,
      "Sebenarnya": 3120,
      "bertanya": 3121,
      "minggu": 3122,
      "Excuse": 3123,
      "atur": 3124,
      "lution": 3125,
      "surely": 3126,
      "memerlukan": 3127,
      "Warna": 3128,
      "Oliver": 3129,
      "hut": 3130,
      "pot": 3131,
      "label": 3132,
      "jadikan": 3133,
      "100": 3134,
      "hukum": 3135,
      "cerita": 3136,
      "perbuatan": 3137,
      "lia": 3138,
      "plain": 3139,
      "indungi": 3140,
      "hadi": 3141,
      "abang": 3142,
      "asaan": 3143,
      "jawab": 3144,
      "size": 3145,
      "couldn": 3146,
      "Cari": 3147,
      "Musa": 3148,
      "Cre": 3149,
      "Thanks": 3150,
      "Frank": 3151,
      "Pol": 3152,
      "Spe": 3153,
      "bay": 3154,
      "que": 3155,
      "taking": 3156,
      "bim": 3157,
      "hanyalah": 3158,
      "nilai": 3159,
      "information": 3160,
      "musuh": 3161,
      "Jer": 3162,
      "cry": 3163,
      "bersedia": 3164,
      "ron": 3165,
      "least": 3166,
      "tembak": 3167,
      "raid": 3168,
      "sor": 3169,
      "uli": 3170,
      "thy": 3171,
      "Diam": 3172,
      "Ambil": 3173,
      "mah": 3174,
      "appe": 3175,
      "woman": 3176,
      "control": 3177,
      "Dap": 3178,
      "tab": 3179,
      "pend": 3180,
      "antung": 3181,
      "train": 3182,
      "minute": 3183,
      "kak": 3184,
      "merasa": 3185,
      "comes": 3186,
      "200": 3187,
      "visi": 3188,
      "cret": 3189,
      "Dah": 3190,
      "batu": 3191,
      "kosong": 3192,
      "touch": 3193,
      "ann": 3194,
      "possible": 3195,
      "kumpulan": 3196,
      "child": 3197,
      "Wil": 3198,
      "kor": 3199,
      "permainan": 3200,
      "menyelamatkan": 3201,
      "sukar": 3202,
      "stuff": 3203,
      "nikmat": 3204,
      "makes": 3205,
      "comple": 3206,
      "Charlie": 3207,
      "engah": 3208,
      "Book": 3209,
      "urusan": 3210,
      "Hal": 3211,
      "ON": 3212,
      "impi": 3213,
      "teks": 3214,
      "memiliki": 3215,
      "Res": 3216,
      "sement": 3217,
      "...?": 3218,
      "dog": 3219,
      "punish": 3220,
      "satunya": 3221,
      "AL": 3222,
      "amaran": 3223,
      "tahui": 3224,
      "program": 3225,
      "paksa": 3226,
      "dance": 3227,
      "Stay": 3228,
      "Time": 3229,
      "Encik": 3230,
      "beautiful": 3231,
      "map": 3232,
      "rist": 3233,
      "reg": 3234,
      "search": 3235,
      "beza": 3236,
      "ayakan": 3237,
      "suai": 3238,
      "By": 3239,
      "zal": 3240,
      "atal": 3241,
      "keku": 3242,
      "akhirat": 3243,
      "cli": 3244,
      "medi": 3245,
      "bukanlah": 3246,
      "Key": 3247,
      "pelayan": 3248,
      "etak": 3249,
      "Master": 3250,
      "destroy": 3251,
      "Katakanlah": 3252,
      "having": 3253,
      "mom": 3254,
      "aturan": 3255,
      "reason": 3256,
      "usi": 3257,
      "Was": 3258,
      "golong": 3259,
      "sisi": 3260,
      "ush": 3261,
      "kumen": 3262,
      "esok": 3263,
      "edit": 3264,
      "cell": 3265,
      "risau": 3266,
      "Af": 3267,
      "ler": 3268,
      "ster": 3269,
      "zz": 3270,
      "lue": 3271,
      "ugama": 3272,
      "pic": 3273,
      "alih": 3274,
      "dialog": 3275,
      "tonight": 3276,
      "andu": 3277,
      "ihak": 3278,
      "gets": 3279,
      "Pri": 3280,
      "Two": 3281,
      "Select": 3282,
      "NO": 3283,
      "umat": 3284,
      "malaikat": 3285,
      "Pan": 3286,
      "idup": 3287,
      "minal": 3288,
      "ously": 3289,
      "exactly": 3290,
      "created": 3291,
      "wal": 3292,
      "outh": 3293,
      "lupa": 3294,
      "andung": 3295,
      "bud": 3296,
      "membuka": 3297,
      "Even": 3298,
      "afraid": 3299,
      "thinking": 3300,
      "peduli": 3301,
      "ganggu": 3302,
      "anymore": 3303,
      "except": 3304,
      "David": 3305,
      "Ak": 3306,
      "Min": 3307,
      "Mod": 3308,
      "kiamat": 3309,
      "Kem": 3310,
      "oo": 3311,
      "negara": 3312,
      "ards": 3313,
      "create": 3314,
      "selamatan": 3315,
      "hours": 3316,
      "ular": 3317,
      "anggung": 3318,
      "cing": 3319,
      "mere": 3320,
      "umb": 3321,
      "ature": 3322,
      "ball": 3323,
      "hai": 3324,
      "dilakukan": 3325,
      "berubah": 3326,
      "ource": 3327,
      "ges": 3328,
      "radi": 3329,
      "step": 3330,
      "bahkan": 3331,
      "ran": 3332,
      "ula": 3333,
      ":%": 3334,
      "upakan": 3335,
      "option": 3336,
      "Papar": 3337,
      "tum": 3338,
      "spital": 3339,
      "ancur": 3340,
      "ount": 3341,
      "half": 3342,
      "_S": 3343,
      "bic": 3344,
      "fy": 3345,
      "gilah": 3346,
      "Hol": 3347,
      "Mor": 3348,
      "alang": 3349,
      "berke": 3350,
      "makna": 3351,
      "asked": 3352,
      "user": 3353,
      "yours": 3354,
      "puti": 3355,
      "jump": 3356,
      "beliau": 3357,
      "Only": 3358,
      "Ali": 3359,
      "Star": 3360,
      "Cuma": 3361,
      "Jim": 3362,
      "lahir": 3363,
      "izin": 3364,
      "semp": 3365,
      "endar": 3366,
      "cipt": 3367,
      "jian": 3368,
      "space": 3369,
      "Prof": 3370,
      "hadapan": 3371,
      "ption": 3372,
      "sebelah": 3373,
      "oran": 3374,
      "lete": 3375,
      "laluan": 3376,
      "saudara": 3377,
      "Cont": 3378,
      "cang": 3379,
      "ino": 3380,
      "beroleh": 3381,
      "sebabkan": 3382,
      "failed": 3383,
      "Ha": 3384,
      "ins": 3385,
      "ony": 3386,
      "Islam": 3387,
      "golongan": 3388,
      "Bob": 3389,
      "bank": 3390,
      "ste": 3391,
      "probably": 3392,
      "anjing": 3393,
      "Run": 3394,
      "pati": 3395,
      "running": 3396,
      "File": 3397,
      "ingatan": 3398,
      "Baru": 3399,
      "Bye": 3400,
      "Sc": 3401,
      "kod": 3402,
      "supposed": 3403,
      "bitch": 3404,
      "sto": 3405,
      "till": 3406,
      "drop": 3407,
      "pac": 3408,
      "setelah": 3409,
      "uruh": 3410,
      "log": 3411,
      "pakaian": 3412,
      "fat": 3413,
      "nombor": 3414,
      "auto": 3415,
      "whatever": 3416,
      "Des": 3417,
      "Gagal": 3418,
      "Mat": 3419,
      "Jum": 3420,
      "imu": 3421,
      "ird": 3422,
      "others": 3423,
      "iling": 3424,
      "tuh": 3425,
      "giving": 3426,
      "server": 3427,
      "waiting": 3428,
      "Mes": 3429,
      "pasal": 3430,
      "witch": 3431,
      "Hur": 3432,
      "Nam": 3433,
      "Tambah": 3434,
      "aksi": 3435,
      "ident": 3436,
      "lok": 3437,
      "near": 3438,
      "ides": 3439,
      "Joe": 3440,
      "jalankan": 3441,
      "Dua": 3442,
      "rik": 3443,
      "mengandung": 3444,
      "Barry": 3445,
      "food": 3446,
      "entikan": 3447,
      "perjalanan": 3448,
      "ungsi": 3449,
      "arahan": 3450,
      "children": 3451,
      "nasi": 3452,
      "soalan": 3453,
      "ruang": 3454,
      "ajaran": 3455,
      "ched": 3456,
      "menjawab": 3457,
      "Tolonglah": 3458,
      "Beg": 3459,
      "ologi": 3460,
      "King": 3461,
      "story": 3462,
      "Sayang": 3463,
      "Bill": 3464,
      "Sama": 3465,
      "ela": 3466,
      "group": 3467,
      "Sk": 3468,
      "ailed": 3469,
      "alik": 3470,
      "stri": 3471,
      "taken": 3472,
      "jual": 3473,
      "senang": 3474,
      "Berhenti": 3475,
      "Lepas": 3476,
      "fre": 3477,
      "adik": 3478,
      "binatang": 3479,
      "front": 3480,
      "Tan": 3481,
      "jung": 3482,
      "ants": 3483,
      "anyakan": 3484,
      "embali": 3485,
      "Color": 3486,
      "Nak": 3487,
      "memak": 3488,
      "El": 3489,
      "pie": 3490,
      "ull": 3491,
      "party": 3492,
      "DE": 3493,
      "kt": 3494,
      "berjumpa": 3495,
      "negeri": 3496,
      "video": 3497,
      "bapa": 3498,
      "boh": 3499,
      "Which": 3500,
      "Nah": 3501,
      "sumpah": 3502,
      "strong": 3503,
      "display": 3504,
      "ists": 3505,
      "Ray": 3506,
      "Ta": 3507,
      "ince": 3508,
      "themselves": 3509,
      "baris": 3510,
      "Mich": 3511,
      "fl": 3512,
      "pon": 3513,
      "semak": 3514,
      "erest": 3515,
      "AP": 3516,
      "cover": 3517,
      "kids": 3518,
      "Cl": 3519,
      "fle": 3520,
      "fell": 3521,
      "ens": 3522,
      "oud": 3523,
      "Shut": 3524,
      "simpan": 3525,
      "alasan": 3526,
      "siden": 3527,
      "short": 3528,
      "kataan": 3529,
      "Christ": 3530,
      "started": 3531,
      "das": 3532,
      "curity": 3533,
      "hendaki": 3534,
      "faith": 3535,
      ".'": 3536,
      "Sangat": 3537,
      "ganti": 3538,
      "nia": 3539,
      "bebas": 3540,
      "aces": 3541,
      "belajar": 3542,
      "putus": 3543,
      "hasil": 3544,
      "Um": 3545,
      "hang": 3546,
      "sister": 3547,
      "pekerja": 3548,
      "fact": 3549,
      "making": 3550,
      "IM": 3551,
      "sihir": 3552,
      "syu": 3553,
      "flo": 3554,
      "pah": 3555,
      "kekal": 3556,
      "menunjukkan": 3557,
      "tersebut": 3558,
      "lakukannya": 3559,
      "Cop": 3560,
      "akar": 3561,
      "esar": 3562,
      "lima": 3563,
      "cent": 3564,
      "kejap": 3565,
      "heavens": 3566,
      "enger": 3567,
      "lahan": 3568,
      "putusan": 3569,
      "value": 3570,
      "kini": 3571,
      "segera": 3572,
      "peris": 3573,
      "Beliau": 3574,
      "LE": 3575,
      "phe": 3576,
      "ral": 3577,
      "Max": 3578,
      "Imp": 3579,
      "tiv": 3580,
      "tice": 3581,
      "looks": 3582,
      "host": 3583,
      "kawas": 3584,
      "cam": 3585,
      "bey": 3586,
      "field": 3587,
      "':": 3588,
      "belong": 3589,
      "fix": 3590,
      "words": 3591,
      "pengguna": 3592,
      "Tuhanmu": 3593,
      "news": 3594,
      "baca": 3595,
      "uman": 3596,
      "kemati": 3597,
      "Dar": 3598,
      "Whether": 3599,
      "alas": 3600,
      "answer": 3601,
      "Ba": 3602,
      "disebabkan": 3603,
      "taq": 3604,
      "Does": 3605,
      "wonder": 3606,
      "hormat": 3607,
      "Jesus": 3608,
      "kawasan": 3609,
      "Huh": 3610,
      "Pi": 3611,
      "state": 3612,
      "weap": 3613,
      "past": 3614,
      "begini": 3615,
      "Out": 3616,
      "sun": 3617,
      "ili": 3618,
      "bungan": 3619,
      "memilih": 3620,
      "cking": 3621,
      "Kekunci": 3622,
      "Auto": 3623,
      "indi": 3624,
      "pose": 3625,
      "kalian": 3626,
      "juta": 3627,
      "Nice": 3628,
      "Sun": 3629,
      "Sai": 3630,
      "hospital": 3631,
      "Ny": 3632,
      "omb": 3633,
      "menghantar": 3634,
      "saved": 3635,
      "ciptakan": 3636,
      "Datang": 3637,
      "rahsia": 3638,
      "bimbang": 3639,
      "La": 3640,
      "boys": 3641,
      "_BAR": 3642,
      "respon": 3643,
      "OR": 3644,
      "Pau": 3645,
      "Ty": 3646,
      "bid": 3647,
      "yaitan": 3648,
      "dio": 3649,
      "irst": 3650,
      "present": 3651,
      "Ri": 3652,
      "mimpi": 3653,
      "hero": 3654,
      "America": 3655,
      "Apabila": 3656,
      "From": 3657,
      "ktor": 3658,
      "iran": 3659,
      "tepat": 3660,
      "Cannot": 3661,
      "Bukankah": 3662,
      "penjara": 3663,
      "Sp": 3664,
      "six": 3665,
      "Would": 3666,
      "mail": 3667,
      "oc": 3668,
      "test": 3669,
      "sepanjang": 3670,
      "jadian": 3671,
      "miss": 3672,
      "terusnya": 3673,
      "bukti": 3674,
      "outside": 3675,
      "diketahui": 3676,
      "important": 3677,
      "Ger": 3678,
      "Up": 3679,
      "bye": 3680,
      "tunjukkan": 3681,
      "arikh": 3682,
      "Indeed": 3683,
      "Captain": 3684,
      "vir": 3685,
      "protect": 3686,
      "keras": 3687,
      "needs": 3688,
      "gener": 3689,
      "sempur": 3690,
      "Kat": 3691,
      "Sim": 3692,
      "Use": 3693,
      "harta": 3694,
      "bijak": 3695,
      "Back": 3696,
      "diberi": 3697,
      "menembak": 3698,
      "perasaan": 3699,
      "mulakan": 3700,
      "Tem": 3701,
      "asal": 3702,
      "intang": 3703,
      "cool": 3704,
      "zalim": 3705,
      "sol": 3706,
      "forget": 3707,
      "sport": 3708,
      "Make": 3709,
      "Great": 3710,
      "ctive": 3711,
      "danger": 3712,
      "gem": 3713,
      "aring": 3714,
      "diper": 3715,
      "conf": 3716,
      "moment": 3717,
      "drive": 3718,
      "habis": 3719,
      "Ale": 3720,
      "York": 3721,
      "uf": 3722,
      "onok": 3723,
      "goes": 3724,
      "melihatnya": 3725,
      "hubungan": 3726,
      "Miss": 3727,
      "women": 3728,
      "Benar": 3729,
      "pihak": 3730,
      "sara": 3731,
      "setuju": 3732,
      "tely": 3733,
      "bing": 3734,
      "kisah": 3735,
      "onton": 3736,
      "Que": 3737,
      "thou": 3738,
      "aruh": 3739,
      "selain": 3740,
      "Tuhanku": 3741,
      "fikirkan": 3742,
      "writ": 3743,
      "secret": 3744,
      "status": 3745,
      "press": 3746,
      "eks": 3747,
      "ktori": 3748,
      "zing": 3749,
      "ney": 3750,
      "16": 3751,
      "Font": 3752,
      "rect": 3753,
      "lives": 3754,
      "pray": 3755,
      "24": 3756,
      "Ram": 3757,
      "ded": 3758,
      "ceive": 3759,
      "tupid": 3760,
      "Syurga": 3761,
      "mencipta": 3762,
      "version": 3763,
      "quick": 3764,
      "lis": 3765,
      "tip": 3766,
      "kai": 3767,
      "menulis": 3768,
      "ikat": 3769,
      "ender": 3770,
      "level": 3771,
      "kufur": 3772,
      "mum": 3773,
      "ledge": 3774,
      "benarkan": 3775,
      "After": 3776,
      "kematian": 3777,
      "ale": 3778,
      "setengah": 3779,
      "keselamatan": 3780,
      "balas": 3781,
      "gil": 3782,
      "abo": 3783,
      "dukan": 3784,
      "padaku": 3785,
      "25": 3786,
      "Bawa": 3787,
      "kedu": 3788,
      "keputusan": 3789,
      "lies": 3790,
      "panas": 3791,
      "airs": 3792,
      "14": 3793,
      "Bur": 3794,
      "Save": 3795,
      "rap": 3796,
      "kesalah": 3797,
      "luh": 3798,
      "tried": 3799,
      "Cuba": 3800,
      "punishment": 3801,
      "Sing": 3802,
      "enem": 3803,
      "impa": 3804,
      "wise": 3805,
      "trouble": 3806,
      "undur": 3807,
      ")?": 3808,
      "Kon": 3809,
      "mau": 3810,
      "Seorang": 3811,
      "sedar": 3812,
      "clean": 3813,
      "benci": 3814,
      "18": 3815,
      "Cer": 3816,
      "pukul": 3817,
      "camp": 3818,
      "argu": 3819,
      "mes": 3820,
      "hy": 3821,
      "ero": 3822,
      "ahead": 3823,
      "tific": 3824,
      "lut": 3825,
      "atuk": 3826,
      "parti": 3827,
      "mengandungi": 3828,
      "Wor": 3829,
      "cem": 3830,
      "appoint": 3831,
      "Buat": 3832,
      "Sub": 3833,
      "_BAR_": 3834,
      "Simpan": 3835,
      "jin": 3836,
      "ief": 3837,
      "contact": 3838,
      "Mart": 3839,
      "Sil": 3840,
      "umur": 3841,
      "object": 3842,
      "Asia": 3843,
      "Red": 3844,
      "sesudah": 3845,
      "memanggil": 3846,
      "FFFF": 3847,
      "Mc": 3848,
      "US": 3849,
      "tangkap": 3850,
      "ately": 3851,
      "unit": 3852,
      "Kapten": 3853,
      "'?": 3854,
      "Mac": 3855,
      "either": 3856,
      "kakan": 3857,
      "kalan": 3858,
      "bol": 3859,
      "mengubah": 3860,
      "fully": 3861,
      "United": 3862,
      "hendaklah": 3863,
      "country": 3864,
      "Memang": 3865,
      "pesawat": 3866,
      "Call": 3867,
      "cket": 3868,
      "rain": 3869,
      "telling": 3870,
      "Ingat": 3871,
      "Mad": 3872,
      "berbuat": 3873,
      "Berikan": 3874,
      "bangun": 3875,
      "write": 3876,
      "va": 3877,
      "bermula": 3878,
      "perkataan": 3879,
      "location": 3880,
      "Jenis": 3881,
      "Fo": 3882,
      "rai": 3883,
      "sw": 3884,
      "zed": 3885,
      "asaran": 3886,
      "asure": 3887,
      "olak": 3888,
      "moving": 3889,
      "langsung": 3890,
      "ulakan": 3891,
      "interest": 3892,
      "Chris": 3893,
      "kuasaan": 3894,
      "Nick": 3895,
      "mand": 3896,
      "limpah": 3897,
      "Fire": 3898,
      "scared": 3899,
      "pop": 3900,
      "tre": 3901,
      "lying": 3902,
      "ikirkan": 3903,
      "Black": 3904,
      ".”": 3905,
      "Adam": 3906,
      "pertolong": 3907,
      "cument": 3908,
      "likasi": 3909,
      "James": 3910,
      "address": 3911,
      "young": 3912,
      "shut": 3913,
      "wood": 3914,
      "kir": 3915,
      "seku": 3916,
      "arikan": 3917,
      "okok": 3918,
      ",\"": 3919,
      "Akan": 3920,
      "las": 3921,
      "buy": 3922,
      "ride": 3923,
      "arikat": 3924,
      "padan": 3925,
      "seconds": 3926,
      "membi": 3927,
      "draw": 3928,
      "turned": 3929,
      "lambat": 3930,
      "erima": 3931,
      "beat": 3932,
      "button": 3933,
      "dark": 3934,
      "hearts": 3935,
      "joy": 3936,
      "kebaikan": 3937,
      "AS": 3938,
      "ktop": 3939,
      "himself": 3940,
      "menuju": 3941,
      "mid": 3942,
      "dise": 3943,
      "berbeza": 3944,
      "tentulah": 3945,
      "Imej": 3946,
      "bermakna": 3947,
      "hate": 3948,
      "unk": 3949,
      "menyimpan": 3950,
      "hoto": 3951,
      "etahuan": 3952,
      "rahmat": 3953,
      "Import": 3954,
      "membaca": 3955,
      "Mary": 3956,
      "black": 3957,
      "Setelah": 3958,
      "special": 3959,
      "Hmm": 3960,
      "ubat": 3961,
      "ahal": 3962,
      "muda": 3963,
      "serv": 3964,
      "ities": 3965,
      "namaCity": 3966,
      "Never": 3967,
      "Samp": 3968,
      "bre": 3969,
      "dom": 3970,
      "panel": 3971,
      "ingatkan": 3972,
      "Kuasa": 3973,
      "small": 3974,
      "jil": 3975,
      "along": 3976,
      "bertaq": 3977,
      "range": 3978,
      "ories": 3979,
      "40": 3980,
      "60": 3981,
      "ns": 3982,
      "tand": 3983,
      "suruh": 3984,
      "changed": 3985,
      "Add": 3986,
      "Puan": 3987,
      "ingkat": 3988,
      "kecuali": 3989,
      "boss": 3990,
      "Inilah": 3991,
      "spect": 3992,
      "sejak": 3993,
      "join": 3994,
      "Mike": 3995,
      "figure": 3996,
      "Lat": 3997,
      "sell": 3998,
      "remain": 3999,
      "ager": 4000,
      "Search": 4001,
      "hentikan": 4002,
      "entire": 4003,
      "det": 4004,
      "wah": 4005,
      "ael": 4006,
      "jabat": 4007,
      "pint": 4008,
      "yle": 4009,
      "anim": 4010,
      "Jalan": 4011,
      "badi": 4012,
      "rit": 4013,
      "table": 4014,
      "kekuasaan": 4015,
      "eta": 4016,
      "super": 4017,
      "defin": 4018,
      "indakan": 4019,
      "Failed": 4020,
      "Ko": 4021,
      "Tah": 4022,
      "lup": 4023,
      "sebaik": 4024,
      "pakai": 4025,
      "works": 4026,
      "surat": 4027,
      "choice": 4028,
      "kesalahan": 4029,
      "pertolongan": 4030,
      "Lau": 4031,
      "`%": 4032,
      "separ": 4033,
      "mode": 4034,
      "position": 4035,
      "million": 4036,
      "volution": 4037,
      "lokasi": 4038,
      "tap": 4039,
      "Nampaknya": 4040,
      "Cur": 4041,
      "Rob": 4042,
      "Watch": 4043,
      "sabar": 4044,
      "tambah": 4045,
      "report": 4046,
      "sive": 4047,
      "Engkau": 4048,
      "Lepaskan": 4049,
      "fan": 4050,
      "peraturan": 4051,
      "acc": 4052,
      "poh": 4053,
      "Bolehkah": 4054,
      "Everything": 4055,
      "Lel": 4056,
      "accept": 4057,
      "suara": 4058,
      "anggap": 4059,
      "Peny": 4060,
      "TV": 4061,
      "stupid": 4062,
      "dil": 4063,
      "asih": 4064,
      "attack": 4065,
      "dustakan": 4066,
      "bahasa": 4067,
      "harga": 4068,
      "pindah": 4069,
      "almost": 4070,
      "aight": 4071,
      "agar": 4072,
      "juang": 4073,
      "puluh": 4074,
      "sendirian": 4075,
      "CH": 4076,
      "kejadian": 4077,
      "abil": 4078,
      "ches": 4079,
      "mahukan": 4080,
      "ena": 4081,
      "tool": 4082,
      "biar": 4083,
      "prison": 4084,
      "everybody": 4085,
      "Hati": 4086,
      "dimana": 4087,
      "Biarkan": 4088,
      "Check": 4089,
      "record": 4090,
      "Lelaki": 4091,
      "Had": 4092,
      "diberikan": 4093,
      "asing": 4094,
      "ketua": 4095,
      "ubahan": 4096,
      "Dim": 4097,
      "Sto": 4098,
      "Welcome": 4099,
      "gs": 4100,
      "India": 4101,
      "code": 4102,
      "future": 4103,
      "buddy": 4104,
      "bicara": 4105,
      "GNO": 4106,
      "Ka": 4107,
      "ences": 4108,
      "aff": 4109,
      "galanya": 4110,
      "menjaga": 4111,
      "panggilan": 4112,
      "RE": 4113,
      "jaw": 4114,
      "none": 4115,
      "sense": 4116,
      "parents": 4117,
      "People": 4118,
      "High": 4119,
      "kekuatan": 4120,
      "Bagi": 4121,
      "Kes": 4122,
      "Sar": 4123,
      "oub": 4124,
      "kand": 4125,
      "entar": 4126,
      "ative": 4127,
      "spir": 4128,
      "Alex": 4129,
      "CD": 4130,
      "round": 4131,
      "berdiri": 4132,
      "berusaha": 4133,
      "months": 4134,
      "Queen": 4135,
      "Kawan": 4136,
      "hara": 4137,
      "kong": 4138,
      "akal": 4139,
      "peace": 4140,
      "directory": 4141,
      "cast": 4142,
      "gak": 4143,
      "aktif": 4144,
      "libat": 4145,
      "memaham": 4146,
      "ordin": 4147,
      "happening": 4148,
      "Copy": 4149,
      "Remo": 4150,
      "sekit": 4151,
      "dalamnya": 4152,
      "GNOME": 4153,
      "RO": 4154,
      "Rus": 4155,
      "deli": 4156,
      "seterusnya": 4157,
      "apart": 4158,
      "kesan": 4159,
      "grand": 4160,
      "print": 4161,
      "pelik": 4162,
      "ountain": 4163,
      "catch": 4164,
      "serius": 4165,
      "ost": 4166,
      "letak": 4167,
      "sanakan": 4168,
      "soul": 4169,
      "Bab": 4170,
      "bayar": 4171,
      "enek": 4172,
      "reward": 4173,
      "rosak": 4174,
      "Setiap": 4175,
      "survi": 4176,
      "Han": 4177,
      "hair": 4178,
      "isy": 4179,
      "nyawa": 4180,
      "menyes": 4181,
      "maj": 4182,
      "Lee": 4183,
      "asking": 4184,
      "fungsi": 4185,
      "saksi": 4186,
      "messages": 4187,
      "sumber": 4188,
      "Saiz": 4189,
      "First": 4190,
      "Raja": 4191,
      "suc": 4192,
      "uhkan": 4193,
      "mengikut": 4194,
      "ampun": 4195,
      "turut": 4196,
      "signs": 4197,
      "birth": 4198,
      "Bil": 4199,
      "lindung": 4200,
      "ware": 4201,
      "asai": 4202,
      "bersalah": 4203,
      "berani": 4204,
      "...\"": 4205,
      "penduduk": 4206,
      "menghu": 4207,
      "Really": 4208,
      "happens": 4209,
      "cape": 4210,
      "caya": 4211,
      "ently": 4212,
      ",..": 4213,
      "BI": 4214,
      "bintang": 4215,
      "iku": 4216,
      "leng": 4217,
      "nap": 4218,
      "eri": 4219,
      "quest": 4220,
      "bkan": 4221,
      "dle": 4222,
      "terpaksa": 4223,
      "hatian": 4224,
      "edah": 4225,
      "sick": 4226,
      "States": 4227,
      "janjian": 4228,
      "certainly": 4229,
      "Lang": 4230,
      "breat": 4231,
      "ese": 4232,
      "inci": 4233,
      "leaving": 4234,
      "aging": 4235,
      "bom": 4236,
      "aves": 4237,
      "gerakan": 4238,
      "Dapatkan": 4239,
      "membiarkan": 4240,
      "Over": 4241,
      "eye": 4242,
      "gy": 4243,
      "ire": 4244,
      "tai": 4245,
      "atangan": 4246,
      "aled": 4247,
      "lemen": 4248,
      "terri": 4249,
      "girls": 4250,
      "hitam": 4251,
      "favor": 4252,
      "Yo": 4253,
      "plu": 4254,
      "device": 4255,
      "adil": 4256,
      "believed": 4257,
      "cript": 4258,
      "uruskan": 4259,
      "rasul": 4260,
      "cahaya": 4261,
      "Kom": 4262,
      "Lap": 4263,
      "indak": 4264,
      "impin": 4265,
      "sident": 4266,
      ")\".": 4267,
      "Bat": 4268,
      "Pal": 4269,
      "tes": 4270,
      "menolong": 4271,
      "pengetahuan": 4272,
      "babkan": 4273,
      "Sup": 4274,
      "song": 4275,
      "tang": 4276,
      "org": 4277,
      "worship": 4278,
      "ico": 4279,
      "Air": 4280,
      "bac": 4281,
      "laut": 4282,
      "zik": 4283,
      "stru": 4284,
      "knowledge": 4285,
      "Chang": 4286,
      "semakin": 4287,
      "sempurna": 4288,
      "Cik": 4289,
      "track": 4290,
      "dapati": 4291,
      "sebalik": 4292,
      "Meny": 4293,
      "bakar": 4294,
      "Wo": 4295,
      "sort": 4296,
      "reve": 4297,
      "ditetapkan": 4298,
      "planet": 4299,
      "deeds": 4300,
      "tuskan": 4301,
      "Damn": 4302,
      "Hurry": 4303,
      "Create": 4304,
      "bohong": 4305,
      "Mag": 4306,
      "akit": 4307,
      "usah": 4308,
      "contain": 4309,
      "Ketika": 4310,
      "burung": 4311,
      "foot": 4312,
      "San": 4313,
      "ared": 4314,
      "amkan": 4315,
      "jukan": 4316,
      "begin": 4317,
      "melindungi": 4318,
      "Ang": 4319,
      "muncul": 4320,
      "Hidup": 4321,
      "Ked": 4322,
      "menentang": 4323,
      "fikiran": 4324,
      "cou": 4325,
      "arm": 4326,
      "sesuai": 4327,
      "berkahwin": 4328,
      "stor": 4329,
      "cial": 4330,
      "cure": 4331,
      "China": 4332,
      "Down": 4333,
      "gawai": 4334,
      "tag": 4335,
      "wed": 4336,
      "account": 4337,
      "tray": 4338,
      "tulis": 4339,
      "Peter": 4340,
      "card": 4341,
      "tings": 4342,
      "dition": 4343,
      "mark": 4344,
      "wards": 4345,
      "Fiji": 4346,
      "Afri": 4347,
      "blow": 4348,
      "security": 4349,
      "menyebabkan": 4350,
      "Mis": 4351,
      "Senar": 4352,
      "equ": 4353,
      "kaya": 4354,
      "firman": 4355,
      "Image": 4356,
      "./": 4357,
      "CP": 4358,
      "lus": 4359,
      "walaupun": 4360,
      "dikatakan": 4361,
      "tie": 4362,
      "Sial": 4363,
      "pick": 4364,
      "pemberi": 4365,
      "Cak": 4366,
      "Cho": 4367,
      "keys": 4368,
      "empty": 4369,
      "Michael": 4370,
      "13": 4371,
      "Ikut": 4372,
      "Know": 4373,
      "SE": 4374,
      "aci": 4375,
      "ational": 4376,
      "quite": 4377,
      "Most": 4378,
      "GP": 4379,
      "bangan": 4380,
      "emas": 4381,
      "Enter": 4382,
      "Default": 4383,
      "gurau": 4384,
      "Cip": 4385,
      "road": 4386,
      "membayar": 4387,
      "ilihan": 4388,
      "Maj": 4389,
      "deser": 4390,
      "tujuan": 4391,
      "Son": 4392,
      "Wal": 4393,
      "hus": 4394,
      "ican": 4395,
      "magi": 4396,
      "worth": 4397,
      "Daddy": 4398,
      "password": 4399,
      "AM": 4400,
      "Fe": 4401,
      "bunyi": 4402,
      "menangan": 4403,
      "ella": 4404,
      "membalas": 4405,
      "nahkan": 4406,
      "Very": 4407,
      "Evolution": 4408,
      "Find": 4409,
      "Hap": 4410,
      "kem": 4411,
      "keluarkan": 4412,
      "missing": 4413,
      "meeting": 4414,
      "lemah": 4415,
      "hotel": 4416,
      "Lon": 4417,
      "Sur": 4418,
      "ause": 4419,
      "doctor": 4420,
      "Pergilah": 4421,
      "Terdapat": 4422,
      "Mengetahui": 4423,
      "colle": 4424,
      "sebabnya": 4425,
      "funny": 4426,
      "kotak": 4427,
      "pistol": 4428,
      "mag": 4429,
      "tong": 4430,
      "output": 4431,
      "Cukup": 4432,
      "Demi": 4433,
      "syukur": 4434,
      "Way": 4435,
      "ged": 4436,
      "feet": 4437,
      "melawan": 4438,
      "direktori": 4439,
      "Cel": 4440,
      "IC": 4441,
      "tra": 4442,
      "proper": 4443,
      "sky": 4444,
      "screen": 4445,
      "UN": 4446,
      "gold": 4447,
      "ric": 4448,
      "doktor": 4449,
      "aluan": 4450,
      "hide": 4451,
      "normal": 4452,
      "Something": 4453,
      "vision": 4454,
      "oked": 4455,
      "ahari": 4456,
      "apapun": 4457,
      "berkat": 4458,
      "ston": 4459,
      "entukan": 4460,
      "copy": 4461,
      "sementara": 4462,
      "ML": 4463,
      "Ob": 4464,
      "Rich": 4465,
      "ipu": 4466,
      "udara": 4467,
      "inan": 4468,
      "perfect": 4469,
      "agon": 4470,
      "takes": 4471,
      "grap": 4472,
      "melarikan": 4473,
      "Messenger": 4474,
      "Remove": 4475,
      "para": 4476,
      "wil": 4477,
      "adakan": 4478,
      "alamat": 4479,
      "jenayah": 4480,
      "kadang": 4481,
      "sambil": 4482,
      "mesin": 4483,
      "kejah": 4484,
      "remove": 4485,
      "oft": 4486,
      "somebody": 4487,
      "buktikan": 4488,
      "building": 4489,
      "arak": 4490,
      "unci": 4491,
      "reali": 4492,
      "expect": 4493,
      "avail": 4494,
      "Senarai": 4495,
      "Gar": 4496,
      "flow": 4497,
      "oga": 4498,
      "treat": 4499,
      "menciptakan": 4500,
      "longer": 4501,
      "Long": 4502,
      "Tab": 4503,
      "enam": 4504,
      "berharap": 4505,
      "pected": 4506,
      "gion": 4507,
      "anyway": 4508,
      "tempoh": 4509,
      "Mm": 4510,
      "tarik": 4511,
      "itch": 4512,
      "jua": 4513,
      "handle": 4514,
      "cintai": 4515,
      "Jumpa": 4516,
      "uri": 4517,
      "periksa": 4518,
      "ots": 4519,
      "dear": 4520,
      "tek": 4521,
      "hidayah": 4522,
      "saiz": 4523,
      "haps": 4524,
      "sediakan": 4525,
      "contin": 4526,
      "pembunuh": 4527,
      "bayang": 4528,
      "Del": 4529,
      "Hell": 4530,
      "IP": 4531,
      "yat": 4532,
      "bertahan": 4533,
      "wid": 4534,
      "pasang": 4535,
      "sentuh": 4536,
      "timewa": 4537,
      "Teruskan": 4538,
      "Remember": 4539,
      "masukkan": 4540,
      "mengerjakan": 4541,
      "Gl": 4542,
      "throw": 4543,
      "tutup": 4544,
      "aint": 4545,
      "straight": 4546,
      "target": 4547,
      "FFFF00": 4548,
      "',": 4549,
      "Ear": 4550,
      "Last": 4551,
      "Yah": 4552,
      "hancur": 4553,
      "seng": 4554,
      "untu": 4555,
      "cana": 4556,
      "peluru": 4557,
      "string": 4558,
      "Cipta": 4559,
      "Und": 4560,
      "doub": 4561,
      "kejut": 4562,
      "respect": 4563,
      "dokumen": 4564,
      "runkan": 4565,
      "following": 4566,
      "LA": 4567,
      "Tempat": 4568,
      "Walaupun": 4569,
      "antai": 4570,
      "Selepas": 4571,
      "Hentikan": 4572,
      "Rum": 4573,
      "sci": 4574,
      "perjanjian": 4575,
      "bear": 4576,
      "afik": 4577,
      "explain": 4578,
      "married": 4579,
      "Tutup": 4580,
      "office": 4581,
      "piece": 4582,
      "ecut": 4583,
      "adar": 4584,
      "Unable": 4585,
      "ggle": 4586,
      "elihat": 4587,
      "Pasti": 4588,
      "learn": 4589,
      "meletakkan": 4590,
      "putih": 4591,
      "View": 4592,
      "clu": 4593,
      "mach": 4594,
      "wall": 4595,
      "amanya": 4596,
      "itakan": 4597,
      "yap": 4598,
      "mulut": 4599,
      "ends": 4600,
      "agaan": 4601,
      "feeling": 4602,
      "diturunkan": 4603,
      "jumpai": 4604,
      "couple": 4605,
      "Hy": 4606,
      "Ting": 4607,
      "vely": 4608,
      "thee": 4609,
      "menjalankan": 4610,
      "butang": 4611,
      "mercy": 4612,
      "merupakan": 4613,
      "cedera": 4614,
      "figurasi": 4615,
      "Stock": 4616,
      "Play": 4617,
      "cetak": 4618,
      "meter": 4619,
      "luck": 4620,
      "Alam": 4621,
      "taat": 4622,
      "masanya": 4623,
      "menghalang": 4624,
      "misi": 4625,
      "badan": 4626,
      "Presiden": 4627,
      "bayi": 4628,
      "Bet": 4629,
      "cac": 4630,
      "non": 4631,
      "rus": 4632,
      "sila": 4633,
      "vered": 4634,
      "pejabat": 4635,
      "percayakan": 4636,
      "Guna": 4637,
      "radio": 4638,
      "500": 4639,
      "Clear": 4640,
      "blic": 4641,
      "perubahan": 4642,
      "white": 4643,
      "idence": 4644,
      "bilang": 4645,
      "born": 4646,
      "komputer": 4647,
      "Green": 4648,
      "Str": 4649,
      "Vo": 4650,
      "asanya": 4651,
      "rick": 4652,
      "forth": 4653,
      "jualah": 4654,
      "Whatever": 4655,
      "cir": 4656,
      "pung": 4657,
      "bukannya": 4658,
      "preci": 4659,
      "17": 4660,
      "Eu": 4661,
      "bs": 4662,
      "gain": 4663,
      "igh": 4664,
      "otak": 4665,
      "options": 4666,
      "concer": 4667,
      "proses": 4668,
      "akhirnya": 4669,
      "instead": 4670,
      "dikehendaki": 4671,
      "menemui": 4672,
      "pekerjaan": 4673,
      "Window": 4674,
      "angnya": 4675,
      "agia": 4676,
      "sult": 4677,
      "nafas": 4678,
      "baju": 4679,
      "Beri": 4680,
      "firm": 4681,
      "inginkan": 4682,
      "seems": 4683,
      "Bangun": 4684,
      "lupakan": 4685,
      "Sara": 4686,
      "ines": 4687,
      "unuhan": 4688,
      "berfirman": 4689,
      "iaitu": 4690,
      "Three": 4691,
      "match": 4692,
      "kejahatan": 4693,
      "cup": 4694,
      "reach": 4695,
      "berhak": 4696,
      "living": 4697,
      "abled": 4698,
      "forever": 4699,
      "boat": 4700,
      "doa": 4701,
      "sesat": 4702,
      "brah": 4703,
      "mayat": 4704,
      "sekalian": 4705,
      "janjikan": 4706,
      "bentuk": 4707,
      "Pemb": 4708,
      "Sul": 4709,
      "eth": 4710,
      "alkan": 4711,
      "hatikan": 4712,
      "pastikan": 4713,
      "percayai": 4714,
      "plane": 4715,
      "serious": 4716,
      "Ru": 4717,
      "cas": 4718,
      "dru": 4719,
      "menges": 4720,
      "ended": 4721,
      "Janganlah": 4722,
      "musy": 4723,
      "Abang": 4724,
      "ralat": 4725,
      "kerj": 4726,
      "baiknya": 4727,
      "calling": 4728,
      "Mesej": 4729,
      "eluarkan": 4730,
      "hubungi": 4731,
      "URL": 4732,
      "kongsi": 4733,
      "London": 4734,
      "vic": 4735,
      "requi": 4736,
      "inding": 4737,
      "Duduk": 4738,
      "pura": 4739,
      "company": 4740,
      "applic": 4741,
      "Father": 4742,
      "laugh": 4743,
      "page": 4744,
      "tia": 4745,
      "mendustakan": 4746,
      "enge": 4747,
      "Sebelum": 4748,
      "bahan": 4749,
      "ancis": 4750,
      "cription": 4751,
      "Guys": 4752,
      "Ow": 4753,
      "kaian": 4754,
      "tidaklah": 4755,
      "Big": 4756,
      "Lihatlah": 4757,
      "Syaitan": 4758,
      "del": 4759,
      "gup": 4760,
      "ply": 4761,
      "tindakan": 4762,
      "yö": 4763,
      "tipu": 4764,
      "bergurau": 4765,
      "saf": 4766,
      "soci": 4767,
      "speed": 4768,
      "Moses": 4769,
      "playing": 4770,
      "Everyone": 4771,
      "Semoga": 4772,
      "bertaqwa": 4773,
      "plo": 4774,
      "peringatan": 4775,
      "engers": 4776,
      "segalanya": 4777,
      "lamanya": 4778,
      "RA": 4779,
      "Ron": 4780,
      "mir": 4781,
      "istimewa": 4782,
      "terminal": 4783,
      "robot": 4784,
      "bahagia": 4785,
      "merah": 4786,
      "deny": 4787,
      "single": 4788,
      "menyerang": 4789,
      "Phil": 4790,
      "jer": 4791,
      "task": 4792,
      "menangkap": 4793,
      "uhi": 4794,
      "menyu": 4795,
      "Marilah": 4796,
      "charac": 4797,
      "memahami": 4798,
      "CI": 4799,
      "Tunjukkan": 4800,
      "gni": 4801,
      "hmm": 4802,
      "bersyukur": 4803,
      "emput": 4804,
      "alami": 4805,
      "musyrik": 4806,
      "Fira": 4807,
      "Lagi": 4808,
      "reco": 4809,
      "daripadanya": 4810,
      "belas": 4811,
      "dangerous": 4812,
      "sekutu": 4813,
      "husband": 4814,
      "Firaun": 4815,
      "Dave": 4816,
      "Light": 4817,
      "oom": 4818,
      "tali": 4819,
      "perangkap": 4820,
      "ety": 4821,
      "doll": 4822,
      "tukar": 4823,
      "matahari": 4824,
      "maksudkan": 4825,
      "Hen": 4826,
      "Sher": 4827,
      "photo": 4828,
      "vie": 4829,
      "peranti": 4830,
      "master": 4831,
      "sebagaimana": 4832,
      "Sign": 4833,
      "Command": 4834,
      "dusta": 4835,
      "fel": 4836,
      "honey": 4837,
      "appro": 4838,
      "lian": 4839,
      "ousand": 4840,
      "menghar": 4841,
      "vious": 4842,
      "hujan": 4843,
      "teruskan": 4844,
      "glad": 4845,
      "Us": 4846,
      "Uni": 4847,
      "haka": 4848,
      "welcome": 4849,
      "receive": 4850,
      "mencuri": 4851,
      "tertentu": 4852,
      "mengeluarkan": 4853,
      "gala": 4854,
      "sangka": 4855,
      "anggar": 4856,
      "operasi": 4857,
      "ius": 4858,
      "serangan": 4859,
      "mate": 4860,
      "Masih": 4861,
      "Tukar": 4862,
      "street": 4863,
      "hadiah": 4864,
      "EN": 4865,
      "Ry": 4866,
      "kol": 4867,
      "lagu": 4868,
      "arri": 4869,
      "berkuasa": 4870,
      "alahkan": 4871,
      "utamaan": 4872,
      "packa": 4873,
      "Det": 4874,
      "Number": 4875,
      "SS": 4876,
      "fish": 4877,
      "jus": 4878,
      "ners": 4879,
      "sex": 4880,
      "dig": 4881,
      "aged": 4882,
      "ayuh": 4883,
      "suit": 4884,
      "kerjakan": 4885,
      "shouldn": 4886,
      "Mark": 4887,
      "Format": 4888,
      "capai": 4889,
      "American": 4890,
      "Samada": 4891,
      "Surely": 4892,
      "Ibrah": 4893,
      "sar": 4894,
      "input": 4895,
      "sejuk": 4896,
      "sekejap": 4897,
      "mender": 4898,
      "emui": 4899,
      "bertindak": 4900,
      "Roy": 4901,
      "Polis": 4902,
      "Ibrahim": 4903,
      "Jan": 4904,
      "incre": 4905,
      "diperlukan": 4906,
      "rasanya": 4907,
      "70": 4908,
      "Mmm": 4909,
      "Pot": 4910,
      "juh": 4911,
      "ragu": 4912,
      "angin": 4913,
      "dik": 4914,
      "bum": 4915,
      "ops": 4916,
      "sebentar": 4917,
      "ctions": 4918,
      "Everybody": 4919,
      "kepadaku": 4920,
      "nescaya": 4921,
      "Rick": 4922,
      "ased": 4923,
      "pil": 4924,
      "trak": 4925,
      "tele": 4926,
      "cide": 4927,
      "fit": 4928,
      "tama": 4929,
      "bersumpah": 4930,
      "sikit": 4931,
      "solu": 4932,
      "gelap": 4933,
      "kurangnya": 4934,
      "kota": 4935,
      "sekitar": 4936,
      "Papa": 4937,
      "cita": 4938,
      "sasaran": 4939,
      "tiwa": 4940,
      "remind": 4941,
      "ohon": 4942,
      "akutkan": 4943,
      "murder": 4944,
      "22": 4945,
      "Fin": 4946,
      "Kr": 4947,
      "Try": 4948,
      "cow": 4949,
      "mouth": 4950,
      "tin": 4951,
      "sial": 4952,
      "berikut": 4953,
      "Log": 4954,
      "Sesu": 4955,
      "celaka": 4956,
      "Opsyen": 4957,
      "Hit": 4958,
      "fair": 4959,
      "vill": 4960,
      "berjuang": 4961,
      "access": 4962,
      "juan": 4963,
      "jubkan": 4964,
      "teach": 4965,
      "Maklumat": 4966,
      "layak": 4967,
      "raja": 4968,
      "Flash": 4969,
      "ikuti": 4970,
      "Kur": 4971,
      "Kill": 4972,
      "NA": 4973,
      "rate": 4974,
      "berpaling": 4975,
      "opi": 4976,
      "White": 4977,
      "undred": 4978,
      "allowed": 4979,
      "annel": 4980,
      "Tru": 4981,
      "askan": 4982,
      "adang": 4983,
      "menik": 4984,
      "force": 4985,
      "document": 4986,
      "pengikut": 4987,
      "thanks": 4988,
      "Kum": 4989,
      "MP": 4990,
      "akjubkan": 4991,
      "thor": 4992,
      "terlepas": 4993,
      "ries": 4994,
      "def": 4995,
      "tepi": 4996,
      "seeing": 4997,
      "padamu": 4998,
      "bangunan": 4999,
      "harusnya": 5000,
      "above": 5001,
      "Es": 5002,
      "Mother": 5003,
      "pikir": 5004,
      "slow": 5005,
      "seat": 5006,
      "orge": 5007,
      "memikirkan": 5008,
      "lucky": 5009,
      "pegang": 5010,
      "Sebagai": 5011,
      "Delete": 5012,
      "khian": 5013,
      "enemy": 5014,
      "available": 5015,
      "Tim": 5016,
      "ib": 5017,
      "icon": 5018,
      "nenek": 5019,
      "berguna": 5020,
      "ical": 5021,
      "correct": 5022,
      "pression": 5023,
      "Cy": 5024,
      "Cause": 5025,
      "Sis": 5026,
      "Ve": 5027,
      "ene": 5028,
      "ander": 5029,
      "membel": 5030,
      "pek": 5031,
      "niakan": 5032,
      "endera": 5033,
      "serve": 5034,
      "adies": 5035,
      "sym": 5036,
      "swear": 5037,
      "kahwinan": 5038,
      "sembahyang": 5039,
      "Brother": 5040,
      "anggungjawab": 5041,
      "Dimana": 5042,
      "fly": 5043,
      "ery": 5044,
      "seven": 5045,
      "dies": 5046,
      "add": 5047,
      "rew": 5048,
      "berser": 5049,
      "tubuh": 5050,
      "terbuka": 5051,
      "acu": 5052,
      "abis": 5053,
      "forgot": 5054,
      "soleh": 5055,
      "Leave": 5056,
      "kebanyakan": 5057,
      "complete": 5058,
      "Rumah": 5059,
      "lesai": 5060,
      "ength": 5061,
      "lied": 5062,
      "dek": 5063,
      "area": 5064,
      "whoa": 5065,
      "pull": 5066,
      "padahal": 5067,
      "pokok": 5068,
      "ujian": 5069,
      "itik": 5070,
      "berfungsi": 5071,
      "andang": 5072,
      "bos": 5073,
      "mengaku": 5074,
      "serang": 5075,
      "fool": 5076,
      "kalangan": 5077,
      "Grand": 5078,
      "kelas": 5079,
      "More": 5080,
      "request": 5081,
      "terang": 5082,
      "fee": 5083,
      "gunung": 5084,
      "Uncle": 5085,
      "hujung": 5086,
      "finish": 5087,
      "supported": 5088,
      "menyembah": 5089,
      "Da": 5090,
      "dut": 5091,
      "menetapkan": 5092,
      "kuman": 5093,
      "keraja": 5094,
      "bincang": 5095,
      "selesaikan": 5096,
      "weeks": 5097,
      "Kal": 5098,
      "Send": 5099,
      "halaman": 5100,
      "zat": 5101,
      "asat": 5102,
      "bomb": 5103,
      "hood": 5104,
      "kidding": 5105,
      "hung": 5106,
      "truck": 5107,
      "ampau": 5108,
      "whose": 5109,
      "grow": 5110,
      "questions": 5111,
      ")}": 5112,
      "Bay": 5113,
      "Cli": 5114,
      "alai": 5115,
      "apos": 5116,
      "hath": 5117,
      "pendapat": 5118,
      "Nobody": 5119,
      "post": 5120,
      "kenalan": 5121,
      "Too": 5122,
      "langkah": 5123,
      "Patut": 5124,
      "memasuk": 5125,
      "Billy": 5126,
      "Lok": 5127,
      "bau": 5128,
      "imag": 5129,
      "avy": 5130,
      "wajah": 5131,
      "brain": 5132,
      "offer": 5133,
      "hutang": 5134,
      "hum": 5135,
      "niagaan": 5136,
      "soever": 5137,
      "moon": 5138,
      "class": 5139,
      "kerajaan": 5140,
      "Sarah": 5141,
      "source": 5142,
      "ading": 5143,
      "aib": 5144,
      "acked": 5145,
      "iko": 5146,
      "Hebat": 5147,
      "Tiga": 5148,
      "Den": 5149,
      "Lit": 5150,
      "tamat": 5151,
      "thousand": 5152,
      "tian": 5153,
      "arian": 5154,
      "stairs": 5155,
      "sifat": 5156,
      "filem": 5157,
      "skrin": 5158,
      "dinner": 5159,
      "connect": 5160,
      "Victor": 5161,
      "Bad": 5162,
      "Kim": 5163,
      "Malam": 5164,
      "Val": 5165,
      "cold": 5166,
      "vate": 5167,
      "ense": 5168,
      "apis": 5169,
      "endali": 5170,
      "avel": 5171,
      "process": 5172,
      "menangis": 5173,
      "promised": 5174,
      "phet": 5175,
      "doubt": 5176,
      "Tre": 5177,
      "pang": 5178,
      "mell": 5179,
      "letakkan": 5180,
      "forward": 5181,
      "kepadaNya": 5182,
      "essor": 5183,
      "Isn": 5184,
      "FBI": 5185,
      "‎.": 5186,
      "menari": 5187,
      "suami": 5188,
      "membeli": 5189,
      "utan": 5190,
      "Invalid": 5191,
      "session": 5192,
      "Roger": 5193,
      "keliling": 5194,
      "sungai": 5195,
      "quiet": 5196,
      "floor": 5197,
      "Alamak": 5198,
      "MA": 5199,
      "UT": 5200,
      "ise": 5201,
      "wind": 5202,
      "rope": 5203,
      "forgive": 5204,
      "pener": 5205,
      "anybody": 5206,
      "Aw": 5207,
      "Banyak": 5208,
      "Nilai": 5209,
      "Teks": 5210,
      "terdapat": 5211,
      "jiwa": 5212,
      "baiklah": 5213,
      "computer": 5214,
      "matic": 5215,
      "Mrs": 5216,
      "membunuhnya": 5217,
      "fighting": 5218,
      "witness": 5219,
      "Scot": 5220,
      "Type": 5221,
      "Kira": 5222,
      "bon": 5223,
      "hundred": 5224,
      "hist": 5225,
      "sejarah": 5226,
      "Begitu": 5227,
      "Data": 5228,
      "Pes": 5229,
      "spend": 5230,
      "menolak": 5231,
      "acher": 5232,
      "weak": 5233,
      "tention": 5234,
      "Intern": 5235,
      "honor": 5236,
      "Ooh": 5237,
      "Sol": 5238,
      "lady": 5239,
      "seolah": 5240,
      "aced": 5241,
      "ikon": 5242,
      "nobody": 5243,
      "rambut": 5244,
      "dadah": 5245,
      "sebaliknya": 5246,
      "Pos": 5247,
      "jari": 5248,
      "sche": 5249,
      "ater": 5250,
      "rie": 5251,
      "ribu": 5252,
      "tract": 5253,
      "tingkat": 5254,
      "pulau": 5255,
      "ditemui": 5256,
      "bungi": 5257,
      "music": 5258,
      "kala": 5259,
      "Trans": 5260,
      "Akhir": 5261,
      "Has": 5262,
      "jau": 5263,
      "alth": 5264,
      "onel": 5265,
      "aster": 5266,
      "kept": 5267,
      "mengawal": 5268,
      "share": 5269,
      "gie": 5270,
      "Web": 5271,
      "Tidakkah": 5272,
      "Stand": 5273,
      "objek": 5274,
      "oriz": 5275,
      "pembunuhan": 5276,
      "operation": 5277,
      "destin": 5278,
      "memakai": 5279,
      "Lar": 5280,
      "OP": 5281,
      "Sed": 5282,
      "rock": 5283,
      "ceed": 5284,
      "worked": 5285,
      "membaw": 5286,
      "antik": 5287,
      "killing": 5288,
      "menurunkan": 5289,
      "General": 5290,
      "destroyed": 5291,
      "Tinggi": 5292,
      "Tinggal": 5293,
      "gger": 5294,
      "etan": 5295,
      "muk": 5296,
      "bola": 5297,
      "kurnia": 5298,
      "Rasanya": 5299,
      "peribadi": 5300,
      "Gembira": 5301,
      "Other": 5302,
      "Para": 5303,
      "cod": 5304,
      "pd": 5305,
      "isa": 5306,
      "wear": 5307,
      "Stre": 5308,
      "names": 5309,
      "revealed": 5310,
      "magic": 5311,
      "Next": 5312,
      "tis": 5313,
      "local": 5314,
      "disana": 5315,
      "careful": 5316,
      "Kerja": 5317,
      "pantas": 5318,
      "PI": 5319,
      "Tod": 5320,
      "kemas": 5321,
      "kaitan": 5322,
      "kulit": 5323,
      "autan": 5324,
      "memory": 5325,
      "sight": 5326,
      "within": 5327,
      "iff": 5328,
      "carry": 5329,
      "sampah": 5330,
      "Bul": 5331,
      "Bru": 5332,
      "Mah": 5333,
      "Ra": 5334,
      "Sus": 5335,
      "hop": 5336,
      "mountain": 5337,
      "army": 5338,
      "angi": 5339,
      "dist": 5340,
      "memandu": 5341,
      "sider": 5342,
      "leted": 5343,
      "pemer": 5344,
      "Someone": 5345,
      "Carol": 5346,
      "susah": 5347,
      "ville": 5348,
      "Cam": 5349,
      "Salah": 5350,
      "squ": 5351,
      "tree": 5352,
      "angels": 5353,
      "somewhere": 5354,
      "mabuk": 5355,
      "Hor": 5356,
      "II": 5357,
      "Kan": 5358,
      "nel": 5359,
      "ench": 5360,
      "ambung": 5361,
      "lewat": 5362,
      "pers": 5363,
      "membuktikan": 5364,
      "sert": 5365,
      "lahirkan": 5366,
      "nasib": 5367,
      "ging": 5368,
      "diken": 5369,
      "kaw": 5370,
      "mencintai": 5371,
      "ounds": 5372,
      "Ayo": 5373,
      "Start": 5374,
      "pandangan": 5375,
      "Aust": 5376,
      "Fine": 5377,
      "organ": 5378,
      "doers": 5379,
      "deep": 5380,
      "ider": 5381,
      "fice": 5382,
      "disokong": 5383,
      "Buang": 5384,
      "bangkit": 5385,
      "Pilihan": 5386,
      "mulai": 5387,
      "80": 5388,
      "Four": 5389,
      "gard": 5390,
      "sac": 5391,
      "tical": 5392,
      "membuang": 5393,
      "vern": 5394,
      "anta": 5395,
      "uly": 5396,
      "endam": 5397,
      "hidmat": 5398,
      "embunyi": 5399,
      "mistake": 5400,
      "ceritakan": 5401,
      "peristiwa": 5402,
      "Raj": 5403,
      "keber": 5404,
      "olog": 5405,
      "mengajar": 5406,
      "patan": 5407,
      "ciful": 5408,
      "minuman": 5409,
      "latih": 5410,
      "Verily": 5411,
      "connection": 5412,
      "isyarat": 5413,
      "terrible": 5414,
      "berkatalah": 5415,
      "machine": 5416,
      "Main": 5417,
      "West": 5418,
      "semalam": 5419,
      "sibuk": 5420,
      "loy": 5421,
      "belongs": 5422,
      "Bon": 5423,
      "FI": 5424,
      "Kong": 5425,
      "ades": 5426,
      "kuda": 5427,
      "kamera": 5428,
      "akukan": 5429,
      "cher": 5430,
      "weird": 5431,
      "guard": 5432,
      "tech": 5433,
      "Shh": 5434,
      "kapan": 5435,
      "Super": 5436,
      "Arab": 5437,
      "ggest": 5438,
      "Didn": 5439,
      "commun": 5440,
      "smart": 5441,
      "embalikan": 5442,
      "weapons": 5443,
      "Faham": 5444,
      "Gor": 5445,
      "Tarikh": 5446,
      "link": 5447,
      "whether": 5448,
      "perhatian": 5449,
      "matik": 5450,
      "experi": 5451,
      "Should": 5452,
      "bangga": 5453,
      "changes": 5454,
      "paper": 5455,
      "sweet": 5456,
      "birthday": 5457,
      "kawalan": 5458,
      "HT": 5459,
      "papan": 5460,
      "inilah": 5461,
      "dibuat": 5462,
      "mend": 5463,
      "permission": 5464,
      "Danny": 5465,
      "Thom": 5466,
      "plat": 5467,
      "hole": 5468,
      "pha": 5469,
      "history": 5470,
      "iel": 5471,
      "perkahwinan": 5472,
      "ford": 5473,
      "neither": 5474,
      "pegawai": 5475,
      "due": 5476,
      "service": 5477,
      "harm": 5478,
      "baiki": 5479,
      "project": 5480,
      "dying": 5481,
      "istan": 5482,
      "syarikat": 5483,
      "thentic": 5484,
      "hukuman": 5485,
      "Engl": 5486,
      "Looks": 5487,
      "Bijak": 5488,
      "Once": 5489,
      "English": 5490,
      "Rem": 5491,
      "idi": 5492,
      "adam": 5493,
      "fortun": 5494,
      "sian": 5495,
      "Seseorang": 5496,
      "soal": 5497,
      "public": 5498,
      "Bertenang": 5499,
      "Iaitu": 5500,
      "tahanan": 5501,
      "rendah": 5502,
      "lines": 5503,
      "faedah": 5504,
      "hutan": 5505,
      "lindungan": 5506,
      "Cent": 5507,
      "Free": 5508,
      "Lin": 5509,
      "Sit": 5510,
      "itor": 5511,
      "adual": 5512,
      "berjanji": 5513,
      "ilmu": 5514,
      "across": 5515,
      "verily": 5516,
      "manakah": 5517,
      "ult": 5518,
      "righte": 5519,
      "exist": 5520,
      "kelak": 5521,
      "paparkan": 5522,
      "Hang": 5523,
      "Ji": 5524,
      "Mur": 5525,
      "mot": 5526,
      "itely": 5527,
      "aplikasi": 5528,
      "kemenangan": 5529,
      "menakutkan": 5530,
      "bertenang": 5531,
      "berperang": 5532,
      "rich": 5533,
      "Step": 5534,
      "Turn": 5535,
      "title": 5536,
      "ombong": 5537,
      "Change": 5538,
      "List": 5539,
      "Tor": 5540,
      "sl": 5541,
      "dibunuh": 5542,
      "escape": 5543,
      "whoever": 5544,
      "therein": 5545,
      "Kecuali": 5546,
      "warning": 5547,
      "desktop": 5548,
      "choose": 5549,
      "blis": 5550,
      "Display": 5551,
      "profes": 5552,
      "gentlemen": 5553,
      "figuration": 5554,
      ")!": 5555,
      "bow": 5556,
      "nal": 5557,
      "enjoy": 5558,
      "meant": 5559,
      "bull": 5560,
      "awar": 5561,
      "jujur": 5562,
      "feed": 5563,
      "passed": 5564,
      "mulaan": 5565,
      "mintaan": 5566,
      "steal": 5567,
      "success": 5568,
      "Lari": 5569,
      "Mul": 5570,
      "Tony": 5571,
      "perniagaan": 5572,
      "immedi": 5573,
      "okus": 5574,
      "Canon": 5575,
      "Laluan": 5576,
      "wahy": 5577,
      "Five": 5578,
      "Jaga": 5579,
      "Makan": 5580,
      "Nombor": 5581,
      "gate": 5582,
      "acy": 5583,
      "Think": 5584,
      "harapan": 5585,
      "bility": 5586,
      "ancar": 5587,
      "kedai": 5588,
      "RasulNya": 5589,
      "locked": 5590,
      "Actually": 5591,
      "Ly": 5592,
      "aan": 5593,
      "fill": 5594,
      "ior": 5595,
      "rant": 5596,
      "threat": 5597,
      "melepaskan": 5598,
      "mencu": 5599,
      "Alright": 5600,
      "ody": 5601,
      "Beberapa": 5602,
      "tikus": 5603,
      "Bring": 5604,
      "President": 5605,
      "Earth": 5606,
      "EL": 5607,
      "fal": 5608,
      "sep": 5609,
      "rez": 5610,
      "reli": 5611,
      "rection": 5612,
      "bersam": 5613,
      "ilang": 5614,
      "dude": 5615,
      "worse": 5616,
      "Inst": 5617,
      "diny": 5618,
      "yöu": 5619,
      "eh": 5620,
      "pertem": 5621,
      "olf": 5622,
      "looked": 5623,
      "loved": 5624,
      "Sesi": 5625,
      "charge": 5626,
      "Pelayan": 5627,
      "Demikian": 5628,
      "Blue": 5629,
      "KDE": 5630,
      "mang": 5631,
      "rather": 5632,
      "orkan": 5633,
      "andy": 5634,
      "agree": 5635,
      "ayalah": 5636,
      "offee": 5637,
      "station": 5638,
      "Alamat": 5639,
      "pohon": 5640,
      "proud": 5641,
      "surpri": 5642,
      "specified": 5643,
      "Home": 5644,
      "Oper": 5645,
      "Won": 5646,
      "Yus": 5647,
      "daging": 5648,
      "tt": 5649,
      "inde": 5650,
      "ahil": 5651,
      "dilihat": 5652,
      "bere": 5653,
      "luka": 5654,
      "siang": 5655,
      "ampaikan": 5656,
      "buatkan": 5657,
      "gota": 5658,
      "Enable": 5659,
      "kaumnya": 5660,
      "Sesuatu": 5661,
      "Yusuf": 5662,
      "cad": 5663,
      "eight": 5664,
      "malu": 5665,
      "yo": 5666,
      "bermaksud": 5667,
      "Thea": 5668,
      "gui": 5669,
      "mohon": 5670,
      "epala": 5671,
      "akibat": 5672,
      "hurry": 5673,
      "watching": 5674,
      "sounds": 5675,
      "recogni": 5676,
      "Little": 5677,
      "Roh": 5678,
      "USA": 5679,
      "rac": 5680,
      "smell": 5681,
      "vor": 5682,
      "sea": 5683,
      "dibuka": 5684,
      "rela": 5685,
      "umi": 5686,
      "needed": 5687,
      "lets": 5688,
      "phy": 5689,
      "Comment": 5690,
      "potong": 5691,
      "Jose": 5692,
      "Nanti": 5693,
      "Tand": 5694,
      "arrest": 5695,
      "itude": 5696,
      "menyedi": 5697,
      "Semasa": 5698,
      "personal": 5699,
      "pressed": 5700,
      "Eddie": 5701,
      "spo": 5702,
      "units": 5703,
      "ached": 5704,
      "dolar": 5705,
      "lyn": 5706,
      "anywhere": 5707,
      "avo": 5708,
      "prov": 5709,
      "proto": 5710,
      "sanggup": 5711,
      "Dean": 5712,
      "membuatkan": 5713,
      "asihani": 5714,
      "Cakap": 5715,
      "gor": 5716,
      "hantu": 5717,
      "towards": 5718,
      "berbahaya": 5719,
      "strength": 5720,
      "commit": 5721,
      "paparan": 5722,
      "picture": 5723,
      "Gam": 5724,
      "South": 5725,
      "Ted": 5726,
      "mini": 5727,
      "ties": 5728,
      "aip": 5729,
      "verse": 5730,
      "gives": 5731,
      "ails": 5732,
      "stick": 5733,
      "latar": 5734,
      "finally": 5735,
      "dasarkan": 5736,
      "Text": 5737,
      "ied": 5738,
      "tot": 5739,
      "menakjubkan": 5740,
      "ayaan": 5741,
      "terlibat": 5742,
      "ette": 5743,
      "ahudi": 5744,
      "anyi": 5745,
      "pasangan": 5746,
      "puak": 5747,
      "poor": 5748,
      "ics": 5749,
      "pandang": 5750,
      "gress": 5751,
      "aneh": 5752,
      "soldi": 5753,
      "tificate": 5754,
      "Cis": 5755,
      "Lab": 5756,
      "Must": 5757,
      "Panggil": 5758,
      "Top": 5759,
      "\\\\": 5760,
      "ej": 5761,
      "alright": 5762,
      "adbir": 5763,
      "ikasi": 5764,
      "shi": 5765,
      "Sebuah": 5766,
      "aft": 5767,
      "Shaw": 5768,
      "missed": 5769,
      "miles": 5770,
      "Tetapkan": 5771,
      "Tetingkap": 5772,
      "semangat": 5773,
      "ganas": 5774,
      "About": 5775,
      "Patutkah": 5776,
      "vernment": 5777,
      "Bri": 5778,
      "Rac": 5779,
      "bly": 5780,
      "fing": 5781,
      "lalai": 5782,
      "aksara": 5783,
      "setia": 5784,
      "didalam": 5785,
      "dibenarkan": 5786,
      "ism": 5787,
      "ros": 5788,
      "jaan": 5789,
      "ulations": 5790,
      "inda": 5791,
      "cook": 5792,
      "burn": 5793,
      "capkan": 5794,
      "clai": 5795,
      "simple": 5796,
      "dikehendakiNya": 5797,
      "Today": 5798,
      "Cr": 5799,
      "Date": 5800,
      "Pl": 5801,
      "khidmat": 5802,
      "smo": 5803,
      "amount": 5804,
      "media": 5805,
      "result": 5806,
      "chi": 5807,
      "Unknown": 5808,
      "Menu": 5809,
      "maafkan": 5810,
      "perintahkan": 5811,
      "Masukkan": 5812,
      "Tanpa": 5813,
      "plugin": 5814,
      "graph": 5815,
      "felt": 5816,
      "Lou": 5817,
      "Memb": 5818,
      "Rep": 5819,
      "lor": 5820,
      "asti": 5821,
      "aire": 5822,
      "versi": 5823,
      "Projek": 5824,
      "ferences": 5825,
      "Bilangan": 5826,
      "\"#": 5827,
      "Kate": 5828,
      "Oke": 5829,
      "Vir": 5830,
      "unting": 5831,
      "became": 5832,
      "edar": 5833,
      "ongrat": 5834,
      "katan": 5835,
      "Ketua": 5836,
      "pengawal": 5837,
      "syn": 5838,
      "select": 5839,
      "standing": 5840,
      "akaun": 5841,
      "Print": 5842,
      "Quick": 5843,
      "titik": 5844,
      "taste": 5845,
      "Celaka": 5846,
      "Bus": 5847,
      "Fil": 5848,
      "Pus": 5849,
      "Yahudi": 5850,
      "vol": 5851,
      "vent": 5852,
      "erah": 5853,
      "assho": 5854,
      "akutan": 5855,
      "sie": 5856,
      "peti": 5857,
      "cient": 5858,
      "expected": 5859,
      "Dokumen": 5860,
      "marry": 5861,
      "ision": 5862,
      "blind": 5863,
      "evidence": 5864,
      "jangka": 5865,
      "memukul": 5866,
      "swee": 5867,
      "goddamn": 5868,
      "URI": 5869,
      "George": 5870,
      "datuk": 5871,
      "sasa": 5872,
      "spl": 5873,
      "inggu": 5874,
      "tim": 5875,
      "rep": 5876,
      "menambah": 5877,
      "tujuh": 5878,
      "mengganggu": 5879,
      "tenaga": 5880,
      "Kevin": 5881,
      "seek": 5882,
      "Budak": 5883,
      "menghad": 5884,
      "broke": 5885,
      "Prophet": 5886,
      "laporan": 5887,
      "Johnny": 5888,
      "Couldn": 5889,
      "solutely": 5890,
      "Bantu": 5891,
      "CO": 5892,
      "Close": 5893,
      "Net": 5894,
      "ST": 5895,
      "bernama": 5896,
      "sihat": 5897,
      "mengel": 5898,
      "mengalami": 5899,
      "seekor": 5900,
      "bath": 5901,
      "palsu": 5902,
      "kembalikan": 5903,
      "jejak": 5904,
      "finished": 5905,
      "signal": 5906,
      "Bruce": 5907,
      "freak": 5908,
      "invalid": 5909,
      "associ": 5910,
      "rog": 5911,
      "mengg": 5912,
      "pecah": 5913,
      "duce": 5914,
      "adilan": 5915,
      "selection": 5916,
      "Laurel": 5917,
      "Bal": 5918,
      "Lain": 5919,
      "Wan": 5920,
      "seharusnya": 5921,
      "dipanggil": 5922,
      "ref": 5923,
      "menonton": 5924,
      "daku": 5925,
      "style": 5926,
      "amazing": 5927,
      "battle": 5928,
      "jumlah": 5929,
      "calls": 5930,
      "risk": 5931,
      "darat": 5932,
      "block": 5933,
      "windows": 5934,
      "weapon": 5935,
      "Baw": 5936,
      "Cut": 5937,
      "DA": 5938,
      "Dom": 5939,
      "Kata": 5940,
      "dendam": 5941,
      "gah": 5942,
      "berdoa": 5943,
      "ayu": 5944,
      "mengemb": 5945,
      "patah": 5946,
      "colum": 5947,
      "Baby": 5948,
      "Abr": 5949,
      "Mex": 5950,
      "Naik": 5951,
      "hina": 5952,
      "berbagai": 5953,
      "perangan": 5954,
      "terdahulu": 5955,
      "Head": 5956,
      "ift": 5957,
      "Mengasihani": 5958,
      "Tool": 5959,
      "badat": 5960,
      "latihan": 5961,
      "namanya": 5962,
      "jelaskan": 5963,
      "Bobby": 5964,
      "pahala": 5965,
      "IT": 5966,
      "Kore": 5967,
      "TP": 5968,
      "bina": 5969,
      "ize": 5970,
      "nakan": 5971,
      "tiadalah": 5972,
      "elok": 5973,
      "ribut": 5974,
      "liar": 5975,
      "identi": 5976,
      "waji": 5977,
      "Love": 5978,
      "Boy": 5979,
      "menutup": 5980,
      "Tugas": 5981,
      "Message": 5982,
      "build": 5983,
      "cross": 5984,
      "nanya": 5985,
      "menahan": 5986,
      "tual": 5987,
      "terlambat": 5988,
      "aware": 5989,
      "trap": 5990,
      "Pertama": 5991,
      "rules": 5992,
      "caught": 5993,
      "entuh": 5994,
      "honest": 5995,
      "Belum": 5996,
      "Padam": 5997,
      "guidance": 5998,
      "Dok": 5999,
      "Ep": 6000,
      "Ham": 6001,
      "daya": 6002,
      "nu": 6003,
      "onto": 6004,
      "mention": 6005,
      "agen": 6006,
      "active": 6007,
      "activ": 6008,
      "kampung": 6009,
      "root": 6010,
      "lubang": 6011,
      "Always": 6012,
      "menging": 6013,
      "ending": 6014,
      "inese": 6015,
      "ditimpa": 6016,
      "pakej": 6017,
      "sambungan": 6018,
      "ridge": 6019,
      "Wayne": 6020,
      "righteous": 6021,
      "nut": 6022,
      "sey": 6023,
      "menimpa": 6024,
      "suci": 6025,
      "yourselves": 6026,
      "ours": 6027,
      "intah": 6028,
      "diterima": 6029,
      "anaknya": 6030,
      "petang": 6031,
      "clock": 6032,
      "voice": 6033,
      "pandai": 6034,
      "Sistem": 6035,
      "East": 6036,
      "Pass": 6037,
      "Rest": 6038,
      "ffic": 6039,
      "flight": 6040,
      "sepenuh": 6041,
      "memulakan": 6042,
      "lom": 6043,
      "selamanya": 6044,
      "ancang": 6045,
      "origin": 6046,
      "trip": 6047,
      "milit": 6048,
      "tolonglah": 6049,
      "during": 6050,
      "kakak": 6051,
      "wedding": 6052,
      "Bijaksana": 6053,
      "Jane": 6054,
      "Kiri": 6055,
      "Tau": 6056,
      "ais": 6057,
      "bri": 6058,
      "cation": 6059,
      "arut": 6060,
      "ites": 6061,
      "menyang": 6062,
      "ills": 6063,
      "worried": 6064,
      "Ready": 6065,
      "crap": 6066,
      "pedang": 6067,
      "cops": 6068,
      "Jimmy": 6069,
      "Cisco": 6070,
      "Erop": 6071,
      "Fre": 6072,
      "Gel": 6073,
      "Wid": 6074,
      "nation": 6075,
      "ov": 6076,
      "uage": 6077,
      "gig": 6078,
      "tran": 6079,
      "Chinese": 6080,
      "sedih": 6081,
      "kumpul": 6082,
      "judge": 6083,
      "hormatan": 6084,
      "berehat": 6085,
      "Eropah": 6086,
      "Kaw": 6087,
      "Tun": 6088,
      "Wall": 6089,
      "aksanakan": 6090,
      "atikan": 6091,
      "guided": 6092,
      "ciri": 6093,
      "pengaruh": 6094,
      "early": 6095,
      "menukar": 6096,
      "weren": 6097,
      "mengejar": 6098,
      "editor": 6099,
      "Alice": 6100,
      "],": 6101,
      "vari": 6102,
      "unless": 6103,
      "guide": 6104,
      "melampau": 6105,
      "kitab": 6106,
      "Carl": 6107,
      "situation": 6108,
      "etective": 6109,
      "Bunuh": 6110,
      "Ind": 6111,
      "Ni": 6112,
      "bakan": 6113,
      "aly": 6114,
      "atif": 6115,
      "wake": 6116,
      "quit": 6117,
      "Siapakah": 6118,
      "osakan": 6119,
      "mile": 6120,
      "bunga": 6121,
      "evening": 6122,
      "Group": 6123,
      "keadaannya": 6124,
      "Tenang": 6125,
      "middle": 6126,
      "application": 6127,
      "MB": 6128,
      "hant": 6129,
      "ray": 6130,
      "diu": 6131,
      "asas": 6132,
      "perlindungan": 6133,
      "sukakan": 6134,
      "lume": 6135,
      "niah": 6136,
      "kalaulah": 6137,
      "sebelumnya": 6138,
      "tribu": 6139,
      "stopped": 6140,
      "menemukan": 6141,
      "occur": 6142,
      "keduanya": 6143,
      "Since": 6144,
      "User": 6145,
      "blue": 6146,
      "psy": 6147,
      "kesen": 6148,
      "betapa": 6149,
      "maksudnya": 6150,
      "Europe": 6151,
      "90": 6152,
      "Kel": 6153,
      "Kembali": 6154,
      "Mama": 6155,
      "PN": 6156,
      "Tar": 6157,
      "paid": 6158,
      "ua": 6159,
      "inte": 6160,
      "unknown": 6161,
      "tired": 6162,
      "tud": 6163,
      "penye": 6164,
      "knowing": 6165,
      "bilangan": 6166,
      "Sho": 6167,
      "prac": 6168,
      "Letakkan": 6169,
      "calm": 6170,
      "binasakan": 6171,
      "Options": 6172,
      "writing": 6173,
      "character": 6174,
      "Bahkan": 6175,
      "Mail": 6176,
      "Shar": 6177,
      "kno": 6178,
      "tarikh": 6179,
      "wis": 6180,
      "arms": 6181,
      "alir": 6182,
      "menjual": 6183,
      "terday": 6184,
      "rim": 6185,
      "liam": 6186,
      "lucu": 6187,
      "delete": 6188,
      "government": 6189,
      "bahwa": 6190,
      "eki": 6191,
      "broken": 6192,
      "busy": 6193,
      "Ahli": 6194,
      "mengerti": 6195,
      "cintakan": 6196,
      "duty": 6197,
      "Ca": 6198,
      "Hand": 6199,
      "Jom": 6200,
      "ora": 6201,
      "rem": 6202,
      "permulaan": 6203,
      "abatan": 6204,
      "pleasure": 6205,
      "reading": 6206,
      "Pasukan": 6207,
      "Telefon": 6208,
      "function": 6209,
      "Steve": 6210,
      "Professor": 6211,
      "300": 6212,
      "Vide": 6213,
      "inf": 6214,
      "angka": 6215,
      "mencuba": 6216,
      "tures": 6217,
      "lim": 6218,
      "loves": 6219,
      "kers": 6220,
      "proof": 6221,
      "geris": 6222,
      "viol": 6223,
      "rangkaian": 6224,
      "mengenainya": 6225,
      "menyerah": 6226,
      "menguasai": 6227,
      "inclu": 6228,
      "completely": 6229,
      "kesenangan": 6230,
      "zen": 6231,
      "amakan": 6232,
      "urch": 6233,
      "mankind": 6234,
      "ante": 6235,
      "Pernah": 6236,
      "keyboard": 6237,
      "viously": 6238,
      "miskin": 6239,
      "kib": 6240,
      "Conne": 6241,
      "Dude": 6242,
      "yakit": 6243,
      "Tommy": 6244,
      "appear": 6245,
      "%.": 6246,
      "/%": 6247,
      "dare": 6248,
      "kari": 6249,
      "semata": 6250,
      "meja": 6251,
      "toh": 6252,
      "termin": 6253,
      "terbunuh": 6254,
      "shell": 6255,
      "gift": 6256,
      "menyuruh": 6257,
      "Left": 6258,
      "ahanam": 6259,
      "menjer": 6260,
      "rentetan": 6261,
      "network": 6262,
      "Jerry": 6263,
      "Paul": 6264,
      "ongratulations": 6265,
      "Japan": 6266,
      "Port": 6267,
      "Tag": 6268,
      "lampu": 6269,
      "anggota": 6270,
      "mencapai": 6271,
      "...!": 6272,
      "necess": 6273,
      "travel": 6274,
      "pread": 6275,
      "spot": 6276,
      "Buku": 6277,
      "Pengampun": 6278,
      "ketakutan": 6279,
      "blok": 6280,
      "Paris": 6281,
      "Follow": 6282,
      "bersih": 6283,
      "jawapan": 6284,
      "dikenali": 6285,
      "Hot": 6286,
      "Ze": 6287,
      "ps": 6288,
      "talian": 6289,
      "xy": 6290,
      "memohon": 6291,
      "store": 6292,
      "mengembalikan": 6293,
      "consider": 6294,
      "membin": 6295,
      "Boss": 6296,
      "bencana": 6297,
      "bottom": 6298,
      "North": 6299,
      "fresh": 6300,
      "appointed": 6301,
      "()": 6302,
      "DV": 6303,
      "Isa": 6304,
      "TH": 6305,
      "TI": 6306,
      "Ton": 6307,
      "coffee": 6308,
      "kopi": 6309,
      "bug": 6310,
      "Keutamaan": 6311,
      "grab": 6312,
      "prepar": 6313,
      "melanggar": 6314,
      "Pengguna": 6315,
      "kurniakan": 6316,
      "korban": 6317,
      "Holy": 6318,
      "continue": 6319,
      "CIA": 6320,
      "abiskan": 6321,
      "==": 6322,
      "Aah": 6323,
      "Fu": 6324,
      "Kunci": 6325,
      "MAN": 6326,
      "Swe": 6327,
      "Sty": 6328,
      "tuah": 6329,
      "bual": 6330,
      "acara": 6331,
      "web": 6332,
      "Sejak": 6333,
      "condition": 6334,
      "datangan": 6335,
      "banding": 6336,
      "lived": 6337,
      "meletup": 6338,
      "campur": 6339,
      "Fel": 6340,
      "Page": 6341,
      "Tam": 6342,
      "race": 6343,
      "esome": 6344,
      "bekas": 6345,
      "etc": 6346,
      "orangnya": 6347,
      "neg": 6348,
      "guest": 6349,
      "Permainan": 6350,
      "guns": 6351,
      "datangkan": 6352,
      "max": 6353,
      "ances": 6354,
      "setting": 6355,
      "partner": 6356,
      "torment": 6357,
      "Pastikan": 6358,
      "munafik": 6359,
      "shortcut": 6360,
      "accident": 6361,
      "Demikianlah": 6362,
      "Ethan": 6363,
      "jantung": 6364,
      "diffic": 6365,
      "kedatangan": 6366,
      "esen": 6367,
      "ows": 6368,
      "ola": 6369,
      "kasut": 6370,
      "Merciful": 6371,
      "siapapun": 6372,
      "visit": 6373,
      "kedudukan": 6374,
      "justice": 6375,
      "Lokasi": 6376,
      "Cetak": 6377,
      "Dunia": 6378,
      "Lakukan": 6379,
      "meli": 6380,
      "ghost": 6381,
      "chief": 6382,
      "peperangan": 6383,
      "penu": 6384,
      "ameter": 6385,
      "dirimu": 6386,
      "Inter": 6387,
      "Berundur": 6388,
      "Dire": 6389,
      "ording": 6390,
      "itive": 6391,
      "Ayuhlah": 6392,
      "bird": 6393,
      "konfigurasi": 6394,
      "Hope": 6395,
      "Dou": 6396,
      "Lupakan": 6397,
      "MS": 6398,
      "pir": 6399,
      "taw": 6400,
      "info": 6401,
      "muzik": 6402,
      "menyatakan": 6403,
      "piawai": 6404,
      "carian": 6405,
      "kebun": 6406,
      "definitely": 6407,
      "ology": 6408,
      "Hong": 6409,
      "Lima": 6410,
      "Ren": 6411,
      "bie": 6412,
      "gula": 6413,
      "kok": 6414,
      "intel": 6415,
      "kaan": 6416,
      "bers": 6417,
      "emon": 6418,
      "abl": 6419,
      "rob": 6420,
      "movie": 6421,
      "menjadilah": 6422,
      "crime": 6423,
      "install": 6424,
      "Choose": 6425,
      "23": 6426,
      "Gi": 6427,
      "Kris": 6428,
      "LD": 6429,
      "Sini": 6430,
      "Still": 6431,
      "tara": 6432,
      "ality": 6433,
      "island": 6434,
      "tih": 6435,
      "tekan": 6436,
      "explo": 6437,
      "Doc": 6438,
      "Status": 6439,
      "sitting": 6440,
      "Silakan": 6441,
      "tambahan": 6442,
      "Gab": 6443,
      "Hantar": 6444,
      "gment": 6445,
      "pow": 6446,
      "arti": 6447,
      "aught": 6448,
      "bolehkan": 6449,
      "kerosakan": 6450,
      "disbelievers": 6451,
      "ektif": 6452,
      "Terus": 6453,
      "anggan": 6454,
      "Entah": 6455,
      "Robert": 6456,
      "App": 6457,
      "orders": 6458,
      "separuh": 6459,
      "Happy": 6460,
      "Thomas": 6461,
      "Mexico": 6462,
      "Fred": 6463,
      "GT": 6464,
      "Kosong": 6465,
      "Zoom": 6466,
      "double": 6467,
      "recom": 6468,
      "permintaan": 6469,
      "denganmu": 6470,
      "elly": 6471,
      "menyentuh": 6472,
      "bless": 6473,
      "Anj": 6474,
      "clothe": 6475,
      "powerful": 6476,
      "pusat": 6477,
      "Bahawa": 6478,
      "William": 6479,
      "menyesal": 6480,
      "false": 6481,
      "rezeki": 6482,
      "Video": 6483,
      "CK": 6484,
      "Hon": 6485,
      "Lady": 6486,
      "dd": 6487,
      "dinding": 6488,
      "nine": 6489,
      "arrow": 6490,
      "disediakan": 6491,
      "mengur": 6492,
      "naf": 6493,
      "aftar": 6494,
      "Suci": 6495,
      "hapuskan": 6496,
      "Tuhannya": 6497,
      "drag": 6498,
      "named": 6499,
      "lapar": 6500,
      "decided": 6501,
      "sembunyikan": 6502,
      "nasihat": 6503,
      "raised": 6504,
      ".)": 6505,
      "Bella": 6506,
      "Gard": 6507,
      "sekeliling": 6508,
      "tig": 6509,
      "menipu": 6510,
      "ilapan": 6511,
      "termasuk": 6512,
      "...,": 6513,
      "mengalir": 6514,
      "Their": 6515,
      "merayu": 6516,
      "Terlalu": 6517,
      "monster": 6518,
      "posit": 6519,
      "Server": 6520,
      "memegang": 6521,
      "Editor": 6522,
      "embunyikan": 6523,
      "thentication": 6524,
      "Central": 6525,
      "lompat": 6526,
      "Sab": 6527,
      "Script": 6528,
      "Ulang": 6529,
      "gai": 6530,
      "gag": 6531,
      "kemal": 6532,
      "tight": 6533,
      "kawal": 6534,
      "berdasarkan": 6535,
      "riage": 6536,
      "mut": 6537,
      "araan": 6538,
      "Sedia": 6539,
      "derhaka": 6540,
      "prove": 6541,
      "tulang": 6542,
      "padam": 6543,
      "Size": 6544,
      "fucker": 6545,
      "menerangkan": 6546,
      "returned": 6547,
      "dreams": 6548,
      "package": 6549,
      "Doktor": 6550,
      "Kid": 6551,
      "Klik": 6552,
      "Plu": 6553,
      "Radi": 6554,
      "boun": 6555,
      "pemu": 6556,
      "vere": 6557,
      "perlahan": 6558,
      "owe": 6559,
      "vey": 6560,
      "chick": 6561,
      "background": 6562,
      "kick": 6563,
      "Ask": 6564,
      "pesan": 6565,
      "holding": 6566,
      "saluran": 6567,
      "effect": 6568,
      "Dapat": 6569,
      "kemalangan": 6570,
      "Jake": 6571,
      "Ph": 6572,
      "switch": 6573,
      "astray": 6574,
      "mest": 6575,
      "vert": 6576,
      "mengalahkan": 6577,
      "ample": 6578,
      "jizat": 6579,
      "menyam": 6580,
      "exc": 6581,
      "penges": 6582,
      "disbelieve": 6583,
      "ruin": 6584,
      "bertau": 6585,
      "strate": 6586,
      "Jepun": 6587,
      "haiwan": 6588,
      "Internet": 6589,
      "idiot": 6590,
      "Sesiapa": 6591,
      "menjerit": 6592,
      "Nuh": 6593,
      "Power": 6594,
      "sombong": 6595,
      "issu": 6596,
      "mandi": 6597,
      "base": 6598,
      "hasn": 6599,
      "crew": 6600,
      "halang": 6601,
      "Arrow": 6602,
      "Atl": 6603,
      "musnahkan": 6604,
      "green": 6605,
      "invol": 6606,
      "Tengoklah": 6607,
      "Contact": 6608,
      "mukjizat": 6609,
      "Abraham": 6610,
      "Sin": 6611,
      "bast": 6612,
      "gus": 6613,
      "ium": 6614,
      "kela": 6615,
      "menentukan": 6616,
      "aise": 6617,
      "terkenal": 6618,
      "kubur": 6619,
      "stone": 6620,
      "likes": 6621,
      "disimpan": 6622,
      "launch": 6623,
      "saling": 6624,
      "sahabat": 6625,
      "Keluarkan": 6626,
      "Inggeris": 6627,
      "survive": 6628,
      "Taurat": 6629,
      "Dit": 6630,
      "Ek": 6631,
      "Jason": 6632,
      "Lay": 6633,
      "Saint": 6634,
      "Work": 6635,
      "cab": 6636,
      "ksi": 6637,
      "vid": 6638,
      "apar": 6639,
      "kejam": 6640,
      "forbid": 6641,
      "channel": 6642,
      "shop": 6643,
      "Sedi": 6644,
      "Perc": 6645,
      "Perhaps": 6646,
      "etahuinya": 6647,
      "musim": 6648,
      "private": 6649,
      "opened": 6650,
      "lurus": 6651,
      "saudar": 6652,
      "habiskan": 6653,
      "House": 6654,
      "Kol": 6655,
      "Mil": 6656,
      "Word": 6657,
      "dge": 6658,
      "lon": 6659,
      "dipaparkan": 6660,
      "ape": 6661,
      "admit": 6662,
      "roof": 6663,
      "sihkan": 6664,
      "champ": 6665,
      "Secara": 6666,
      "alukan": 6667,
      "extra": 6668,
      "thinks": 6669,
      "bles": 6670,
      "besi": 6671,
      "cero": 6672,
      "Arahan": 6673,
      "gency": 6674,
      "mighty": 6675,
      "Wise": 6676,
      "Anything": 6677,
      "izinkan": 6678,
      "Street": 6679,
      "asshole": 6680,
      "clothes": 6681,
      "85": 6682,
      "Besar": 6683,
      "Far": 6684,
      "Kalian": 6685,
      "Line": 6686,
      "Tembak": 6687,
      "yata": 6688,
      "dihantar": 6689,
      "dijanjikan": 6690,
      "adv": 6691,
      "berdosa": 6692,
      "enggan": 6693,
      "awam": 6694,
      "memat": 6695,
      "gods": 6696,
      "ains": 6697,
      "weather": 6698,
      "ida": 6699,
      "peat": 6700,
      "configuration": 6701,
      "hidupkan": 6702,
      "hala": 6703,
      "sembahan": 6704,
      "camera": 6705,
      "realize": 6706,
      "immediately": 6707,
      "\"...": 6708,
      "Easy": 6709,
      "Tot": 6710,
      "zaman": 6711,
      "thur": 6712,
      "kekasih": 6713,
      "terror": 6714,
      "otong": 6715,
      "dengarkan": 6716,
      "menyek": 6717,
      "Perancis": 6718,
      "spent": 6719,
      "covered": 6720,
      "pix": 6721,
      "peta": 6722,
      "price": 6723,
      "tahankan": 6724,
      "Salin": 6725,
      "taught": 6726,
      "Afrika": 6727,
      "hungry": 6728,
      "Click": 6729,
      "%(": 6730,
      "Drop": 6731,
      "End": 6732,
      "GB": 6733,
      "PE": 6734,
      "dgn": 6735,
      "akses": 6736,
      "strange": 6737,
      "lump": 6738,
      "penyakit": 6739,
      "Daniel": 6740,
      "lebihan": 6741,
      "Arthur": 6742,
      "sudden": 6743,
      "virus": 6744,
      "Marty": 6745,
      "bullshit": 6746,
      "DVD": 6747,
      "-%": 6748,
      "Wak": 6749,
      "fak": 6750,
      "jour": 6751,
      "via": 6752,
      "angku": 6753,
      "sedap": 6754,
      "dibawa": 6755,
      "term": 6756,
      "audio": 6757,
      "sume": 6758,
      "impossible": 6759,
      "muat": 6760,
      "mengikuti": 6761,
      "entry": 6762,
      "perties": 6763,
      "Shi": 6764,
      "Doctor": 6765,
      "menghabiskan": 6766,
      "tetamu": 6767,
      "ancy": 6768,
      "ajak": 6769,
      "nampaknya": 6770,
      "seks": 6771,
      "feels": 6772,
      "Cepatlah": 6773,
      "okongan": 6774,
      "Lapisan": 6775,
      "village": 6776,
      "Akhirnya": 6777,
      "\"(": 6778,
      "Jauh": 6779,
      "Kar": 6780,
      "Pindah": 6781,
      "pack": 6782,
      "sword": 6783,
      "alin": 6784,
      "appreci": 6785,
      "kacau": 6786,
      "berbincang": 6787,
      "emer": 6788,
      "lier": 6789,
      "author": 6790,
      "forgiven": 6791,
      "bosan": 6792,
      "mengetahuinya": 6793,
      "wearing": 6794,
      "Bertahan": 6795,
      "quar": 6796,
      "disabled": 6797,
      "geant": 6798,
      "menghidup": 6799,
      "menghancur": 6800,
      "description": 6801,
      "Roman": 6802,
      "turunkan": 6803,
      "bertaubat": 6804,
      "menyeksa": 6805,
      "**": 6806,
      "Bag": 6807,
      "GH": 6808,
      "Law": 6809,
      "Mahu": 6810,
      "SI": 6811,
      "hol": 6812,
      "soft": 6813,
      "ually": 6814,
      "apologi": 6815,
      "ador": 6816,
      "kesini": 6817,
      "sulit": 6818,
      "wice": 6819,
      "willing": 6820,
      "Before": 6821,
      "matikan": 6822,
      "ditangkap": 6823,
      "syurga": 6824,
      "menghentikan": 6825,
      "mungkinan": 6826,
      "turns": 6827,
      "design": 6828,
      "mustahil": 6829,
      "Atas": 6830,
      "custo": 6831,
      "siapakah": 6832,
      "faat": 6833,
      "automatik": 6834,
      "Karen": 6835,
      "MI": 6836,
      "Ruang": 6837,
      "ganya": 6838,
      "ert": 6839,
      "inno": 6840,
      "angkah": 6841,
      "revel": 6842,
      "memus": 6843,
      "guam": 6844,
      "duka": 6845,
      "arts": 6846,
      "Unit": 6847,
      "Island": 6848,
      "sional": 6849,
      "Baris": 6850,
      "Program": 6851,
      "Trust": 6852,
      "miliki": 6853,
      "penerbangan": 6854,
      "Joseph": 6855,
      "sepenuhnya": 6856,
      "menyangka": 6857,
      "Felic": 6858,
      "45": 6859,
      "Ket": 6860,
      "Med": 6861,
      "Mum": 6862,
      "Melihat": 6863,
      "Path": 6864,
      "section": 6865,
      "diambil": 6866,
      "assi": 6867,
      "memen": 6868,
      "tupan": 6869,
      "ague": 6870,
      "email": 6871,
      "ikatan": 6872,
      "Sekali": 6873,
      "ampuan": 6874,
      "kertas": 6875,
      "cium": 6876,
      "placed": 6877,
      "menyakit": 6878,
      "hello": 6879,
      "Lebar": 6880,
      "drunk": 6881,
      "Tetap": 6882,
      "final": 6883,
      "Sambungan": 6884,
      "menyelesai": 6885,
      "figured": 6886,
      "prayer": 6887,
      "quickly": 6888,
      "column": 6889,
      "military": 6890,
      "Congratulations": 6891,
      "Ele": 6892,
      "Mau": 6893,
      "jemput": 6894,
      "medan": 6895,
      "berhati": 6896,
      "neigh": 6897,
      "projek": 6898,
      "pertinya": 6899,
      "stud": 6900,
      "kesilapan": 6901,
      "Audio": 6902,
      "sakitnya": 6903,
      "impian": 6904,
      "raksasa": 6905,
      "World": 6906,
      "Tahniah": 6907,
      "HTML": 6908,
      "Bes": 6909,
      "Blo": 6910,
      "Fri": 6911,
      "Jin": 6912,
      "Sm": 6913,
      "Win": 6914,
      "scal": 6915,
      "anku": 6916,
      "thin": 6917,
      "aru": 6918,
      "secure": 6919,
      "legal": 6920,
      "berterima": 6921,
      "hei": 6922,
      "dakwa": 6923,
      "memori": 6924,
      "saving": 6925,
      "guar": 6926,
      "menyi": 6927,
      "meros": 6928,
      "turning": 6929,
      "Pegang": 6930,
      "Brad": 6931,
      "Somebody": 6932,
      "biru": 6933,
      "Tentulah": 6934,
      "merekalah": 6935,
      "Christmas": 6936,
      "dasar": 6937,
      "rapat": 6938,
      "Under": 6939,
      "dinyatakan": 6940,
      "Agent": 6941,
      "Bir": 6942,
      "DM": 6943,
      "Na": 6944,
      "Pete": 6945,
      "Rang": 6946,
      "Tri": 6947,
      "ech": 6948,
      "eating": 6949,
      "fokus": 6950,
      "sad": 6951,
      "engine": 6952,
      "ria": 6953,
      "abaikan": 6954,
      "waste": 6955,
      "cious": 6956,
      "grace": 6957,
      "pemain": 6958,
      "mary": 6959,
      "mengenal": 6960,
      "French": 6961,
      "rakyat": 6962,
      "membawanya": 6963,
      "totally": 6964,
      "Hak": 6965,
      "Tanda": 6966,
      "Yu": 6967,
      "third": 6968,
      "amin": 6969,
      "total": 6970,
      "berasa": 6971,
      "heavy": 6972,
      "buta": 6973,
      "teg": 6974,
      "tembakan": 6975,
      "exists": 6976,
      "disk": 6977,
      "Lock": 6978,
      "fuckin": 6979,
      "bertanggungjawab": 6980,
      "Tuanku": 6981,
      "Settings": 6982,
      "officer": 6983,
      "cemasan": 6984,
      "width": 6985,
      "Jor": 6986,
      "Met": 6987,
      "Tepat": 6988,
      "fac": 6989,
      "klik": 6990,
      "laman": 6991,
      "sand": 6992,
      "wel": 6993,
      "alled": 6994,
      "ret": 6995,
      "terkejut": 6996,
      "heads": 6997,
      "Brit": 6998,
      "elaskan": 6999,
      "Semak": 7000,
      "element": 7001,
      "tunduk": 7002,
      "baginya": 7003,
      "built": 7004,
      "starting": 7005,
      "sengaja": 7006,
      "Epson": 7007,
      "710": 7008,
      "Bumi": 7009,
      "Kere": 7010,
      "Lan": 7011,
      "balah": 7012,
      "oth": 7013,
      "rout": 7014,
      "lebr": 7015,
      "reme": 7016,
      "lig": 7017,
      "utara": 7018,
      "note": 7019,
      "tea": 7020,
      "pengajaran": 7021,
      "prin": 7022,
      "selesa": 7023,
      "ggs": 7024,
      "brothers": 7025,
      "kenalkan": 7026,
      "memuatkan": 7027,
      "servants": 7028,
      ",...": 7029,
      "PA": 7030,
      "Pa": 7031,
      "kiss": 7032,
      "dilak": 7033,
      "kece": 7034,
      "keturun": 7035,
      "bersembunyi": 7036,
      "awn": 7037,
      "ikal": 7038,
      "guil": 7039,
      "barat": 7040,
      "membina": 7041,
      "establ": 7042,
      "Indian": 7043,
      "rule": 7044,
      "cakapkan": 7045,
      "tetapan": 7046,
      "Reg": 7047,
      "pemilihan": 7048,
      "Forget": 7049,
      "focus": 7050,
      "stuck": 7051,
      "property": 7052,
      "Korea": 7053,
      "ES": 7054,
      "Jet": 7055,
      "Ori": 7056,
      "PS": 7057,
      "Pull": 7058,
      "obey": 7059,
      "inves": 7060,
      "suffer": 7061,
      "iki": 7062,
      "patung": 7063,
      "tempt": 7064,
      "seronok": 7065,
      "ieve": 7066,
      "Perkara": 7067,
      "ancarkan": 7068,
      "besides": 7069,
      "ference": 7070,
      "filled": 7071,
      "gantikan": 7072,
      "kandungan": 7073,
      "pemberian": 7074,
      "sacri": 7075,
      "religion": 7076,
      "AK": 7077,
      "Case": 7078,
      "Pop": 7079,
      "Sch": 7080,
      "cate": 7081,
      "yum": 7082,
      "andon": 7083,
      "memandang": 7084,
      "manapun": 7085,
      "endang": 7086,
      "worst": 7087,
      "sometimes": 7088,
      "memben": 7089,
      "merasakan": 7090,
      "kenyata": 7091,
      "State": 7092,
      "Anna": 7093,
      "crip": 7094,
      "Pemilihan": 7095,
      "tify": 7096,
      "kotor": 7097,
      "legs": 7098,
      "bebaskan": 7099,
      "Felicity": 7100,
      "Cali": 7101,
      "Fit": 7102,
      "None": 7103,
      "Pin": 7104,
      "Yep": 7105,
      "fru": 7106,
      "juru": 7107,
      "nologi": 7108,
      "“%": 7109,
      "ener": 7110,
      "ensi": 7111,
      "berhutang": 7112,
      "eret": 7113,
      "andingan": 7114,
      "perut": 7115,
      "ayam": 7116,
      "acting": 7117,
      "stars": 7118,
      "cha": 7119,
      "olly": 7120,
      "defe": 7121,
      "illy": 7122,
      "truly": 7123,
      "park": 7124,
      "Tetapan": 7125,
      "Preferences": 7126,
      "menyebut": 7127,
      "fucked": 7128,
      "loading": 7129,
      "silap": 7130,
      "Sky": 7131,
      "majlis": 7132,
      "difficult": 7133,
      "Py": 7134,
      "Tangkap": 7135,
      "grid": 7136,
      "io": 7137,
      "kehendaki": 7138,
      "iranya": 7139,
      "ainkan": 7140,
      "Andy": 7141,
      "tail": 7142,
      "minat": 7143,
      "comfor": 7144,
      "unggung": 7145,
      "hidden": 7146,
      "syarat": 7147,
      "menghap": 7148,
      "Syarikat": 7149,
      "Stefan": 7150,
      "Richard": 7151,
      "Fall": 7152,
      "Guru": 7153,
      "Ubah": 7154,
      "hall": 7155,
      "kasa": 7156,
      "khas": 7157,
      "oke": 7158,
      "atih": 7159,
      "itkan": 7160,
      "asama": 7161,
      "ketiga": 7162,
      "terperi": 7163,
      "below": 7164,
      "Kepada": 7165,
      "Stan": 7166,
      "pemimpin": 7167,
      "Kenalan": 7168,
      "hington": 7169,
      "sake": 7170,
      "heading": 7171,
      "event": 7172,
      "fathers": 7173,
      "hearing": 7174,
      "north": 7175,
      "Address": 7176,
      "ralia": 7177,
      "beyond": 7178,
      "kiranya": 7179,
      "Rachel": 7180,
      "necessary": 7181,
      "membinasakan": 7182,
      "menghidupkan": 7183,
      "21": 7184,
      "Jun": 7185,
      "Rah": 7186,
      "Want": 7187,
      "_n": 7188,
      "bought": 7189,
      "cs": 7190,
      "sequ": 7191,
      "ona": 7192,
      "keses": 7193,
      "formed": 7194,
      "chasti": 7195,
      "ahul": 7196,
      "opsyen": 7197,
      "moves": 7198,
      "grant": 7199,
      "Goth": 7200,
      "pelajar": 7201,
      "tetapkan": 7202,
      "killer": 7203,
      "percayaan": 7204,
      "Hereafter": 7205,
      "System": 7206,
      "Desktop": 7207,
      "tandatangan": 7208,
      "kandung": 7209,
      ".’": 7210,
      "Detective": 7211,
      "Gri": 7212,
      "Wang": 7213,
      "bap": 7214,
      "bound": 7215,
      "jun": 7216,
      "dijumpai": 7217,
      "menya": 7218,
      "tut": 7219,
      "celebr": 7220,
      "illa": 7221,
      "dahan": 7222,
      "tax": 7223,
      "menyus": 7224,
      "haram": 7225,
      "grade": 7226,
      "Chil": 7227,
      "vict": 7228,
      "mendapatkannya": 7229,
      "trik": 7230,
      "isterinya": 7231,
      "direction": 7232,
      "Turun": 7233,
      "decision": 7234,
      "patient": 7235,
      "Ingatlah": 7236,
      "menghubungi": 7237,
      "Henry": 7238,
      "DI": 7239,
      "aa": 7240,
      "arung": 7241,
      "unbelievers": 7242,
      "rele": 7243,
      "mendatangkan": 7244,
      "berbohong": 7245,
      "shad": 7246,
      "menyak": 7247,
      "execut": 7248,
      "sesama": 7249,
      "hiding": 7250,
      "Helo": 7251,
      "pesanan": 7252,
      "layer": 7253,
      "horse": 7254,
      "tolak": 7255,
      "Washington": 7256,
      "bayangkan": 7257,
      "Kumpulan": 7258,
      "berserah": 7259,
      "Australia": 7260,
      "menghadapi": 7261,
      "Om": 7262,
      "erta": 7263,
      "oul": 7264,
      "itself": 7265,
      "adu": 7266,
      "bertahun": 7267,
      "buhan": 7268,
      "ternak": 7269,
      "jail": 7270,
      "Thus": 7271,
      "nail": 7272,
      "tingkap": 7273,
      "ava": 7274,
      "batas": 7275,
      "tahap": 7276,
      "helped": 7277,
      "sudut": 7278,
      "Note": 7279,
      "captain": 7280,
      "yesterday": 7281,
      "closed": 7282,
      "gaskan": 7283,
      "Seri": 7284,
      "lapisan": 7285,
      "memutuskan": 7286,
      "humans": 7287,
      "Mesti": 7288,
      "Tajuk": 7289,
      "Batman": 7290,
      "required": 7291,
      "Grid": 7292,
      "Jai": 7293,
      "Kadang": 7294,
      "Memu": 7295,
      "jay": 7296,
      "dick": 7297,
      "askar": 7298,
      "buhkan": 7299,
      "tery": 7300,
      "daki": 7301,
      "aco": 7302,
      "memadam": 7303,
      "manager": 7304,
      "weight": 7305,
      "minyak": 7306,
      "Shall": 7307,
      "calendar": 7308,
      "girlfriend": 7309,
      "corrup": 7310,
      "followed": 7311,
      "simum": 7312,
      "elek": 7313,
      "Paparan": 7314,
      "difference": 7315,
      "further": 7316,
      "199": 7317,
      "painful": 7318,
      "Gener": 7319,
      "relax": 7320,
      "Cat": 7321,
      "Rom": 7322,
      "TS": 7323,
      "gori": 7324,
      "rot": 7325,
      "enangkan": 7326,
      "secepat": 7327,
      "menc": 7328,
      "beramal": 7329,
      "berhasil": 7330,
      "ereja": 7331,
      "terperangkap": 7332,
      "dev": 7333,
      "loser": 7334,
      "ellow": 7335,
      "ourselves": 7336,
      "modi": 7337,
      "membakar": 7338,
      "ekor": 7339,
      "Six": 7340,
      "Angel": 7341,
      "possi": 7342,
      "bakat": 7343,
      "mengenali": 7344,
      "signed": 7345,
      "Tentera": 7346,
      "Martin": 7347,
      "orizont": 7348,
      "remote": 7349,
      "DO": 7350,
      "Gold": 7351,
      "Mula": 7352,
      "Tang": 7353,
      "galah": 7354,
      "htt": 7355,
      "ub": 7356,
      "imum": 7357,
      "manis": 7358,
      "Sep": 7359,
      "sebanyak": 7360,
      "places": 7361,
      "menyampaikan": 7362,
      "Bergerak": 7363,
      "Death": 7364,
      "Grace": 7365,
      "problems": 7366,
      "seluruhan": 7367,
      "returns": 7368,
      "pahlawan": 7369,
      "aktifkan": 7370,
      "beginning": 7371,
      "Percayalah": 7372,
      "Sand": 7373,
      "tamp": 7374,
      "venge": 7375,
      "wealth": 7376,
      "cuti": 7377,
      "anakku": 7378,
      "Wells": 7379,
      "settings": 7380,
      "sinar": 7381,
      "numbers": 7382,
      "garis": 7383,
      "Damon": 7384,
      "enderaan": 7385,
      "GTK": 7386,
      "Bor": 7387,
      "CR": 7388,
      "Coun": 7389,
      "Len": 7390,
      "cen": 7391,
      "fem": 7392,
      "jik": 7393,
      "syaitan": 7394,
      "tough": 7395,
      "twice": 7396,
      "iting": 7397,
      "theart": 7398,
      "kemana": 7399,
      "kaun": 7400,
      "berlak": 7401,
      "pergerakan": 7402,
      "terbesar": 7403,
      "terbakar": 7404,
      "abung": 7405,
      "abase": 7406,
      "devil": 7407,
      "Alat": 7408,
      "tron": 7409,
      "duga": 7410,
      "mask": 7411,
      "daerah": 7412,
      "mith": 7413,
      "pertanya": 7414,
      "temui": 7415,
      "situasi": 7416,
      "Jordan": 7417,
      "Phara": 7418,
      "Snow": 7419,
      "basan": 7420,
      "jadual": 7421,
      "rence": 7422,
      "bertuah": 7423,
      "illi": 7424,
      "emak": 7425,
      "depart": 7426,
      "decide": 7427,
      "neck": 7428,
      "example": 7429,
      "keeping": 7430,
      "untung": 7431,
      "Angkat": 7432,
      "kemampuan": 7433,
      "Pharaoh": 7434,
      "Might": 7435,
      "Pet": 7436,
      "Rusia": 7437,
      "Sau": 7438,
      "].": 7439,
      "skin": 7440,
      "initi": 7441,
      "enang": 7442,
      "beras": 7443,
      "berlawan": 7444,
      "leher": 7445,
      "ampas": 7446,
      "Noah": 7447,
      "himpun": 7448,
      "menyokong": 7449,
      "penge": 7450,
      "spell": 7451,
      "drpd": 7452,
      "Selama": 7453,
      "Force": 7454,
      "headed": 7455,
      "border": 7456,
      "guru": 7457,
      "Charles": 7458,
      "kole": 7459,
      "listening": 7460,
      "Police": 7461,
      "model": 7462,
      "filter": 7463,
      "leader": 7464,
      "values": 7465,
      "training": 7466,
      "Resur": 7467,
      "swim": 7468,
      "kerjasama": 7469,
      "Bagai": 7470,
      "Tarik": 7471,
      "ax": 7472,
      "tro": 7473,
      "taman": 7474,
      "sehari": 7475,
      "asar": 7476,
      "..,..": 7477,
      "agre": 7478,
      "images": 7479,
      "Sehingga": 7480,
      "atures": 7481,
      "contoh": 7482,
      "excuse": 7483,
      "ditembak": 7484,
      "Enough": 7485,
      "marriage": 7486,
      "jected": 7487,
      "ressed": 7488,
      "moved": 7489,
      "genius": 7490,
      "Files": 7491,
      "kesus": 7492,
      "learned": 7493,
      "kalahkan": 7494,
      "talked": 7495,
      "menelefon": 7496,
      "memastikan": 7497,
      "Ryan": 7498,
      "Scott": 7499,
      "kesesatan": 7500,
      "BO": 7501,
      "Cantik": 7502,
      "Fal": 7503,
      "Mun": 7504,
      "Pick": 7505,
      "Wake": 7506,
      "Yet": 7507,
      "balan": 7508,
      "ffi": 7509,
      "slip": 7510,
      "lebar": 7511,
      "reck": 7512,
      "mendapati": 7513,
      "berlari": 7514,
      "bersabar": 7515,
      "berharga": 7516,
      "pergilah": 7517,
      "acle": 7518,
      "ikmat": 7519,
      "Alpha": 7520,
      "inder": 7521,
      "nother": 7522,
      "datangnya": 7523,
      "mond": 7524,
      "Masalah": 7525,
      "sempadan": 7526,
      "entiasa": 7527,
      "cute": 7528,
      "points": 7529,
      "Poo": 7530,
      "jarak": 7531,
      "Anyway": 7532,
      "incin": 7533,
      "pantai": 7534,
      "Halo": 7535,
      "ubatan": 7536,
      "received": 7537,
      "forgiveness": 7538,
      "\":": 7539,
      "Bos": 7540,
      "Batal": 7541,
      "EO": 7542,
      "Fun": 7543,
      "Old": 7544,
      "Sungguh": 7545,
      "Vik": 7546,
      "pare": 7547,
      "wakan": 7548,
      "angry": 7549,
      "unsur": 7550,
      "luas": 7551,
      "loss": 7552,
      "pepi": 7553,
      "pense": 7554,
      "bolehkah": 7555,
      "teling": 7556,
      "kerusi": 7557,
      "civil": 7558,
      "menyaksi": 7559,
      "adis": 7560,
      "expression": 7561,
      "mental": 7562,
      "produ": 7563,
      "panah": 7564,
      "held": 7565,
      "sons": 7566,
      "Whoo": 7567,
      "Canada": 7568,
      "pertandingan": 7569,
      "masalahnya": 7570,
      "greater": 7571,
      "Connor": 7572,
      "installed": 7573,
      "lembu": 7574,
      "walking": 7575,
      "memeli": 7576,
      "Keyboard": 7577,
      "Jumlah": 7578,
      "menghancurkan": 7579,
      "Resurrection": 7580,
      "32": 7581,
      "35": 7582,
      "Night": 7583,
      "Wr": 7584,
      "ions": 7585,
      "kus": 7586,
      "payah": 7587,
      "west": 7588,
      "seluar": 7589,
      "meth": 7590,
      "rekod": 7591,
      "chen": 7592,
      "pattern": 7593,
      "selis": 7594,
      "Dig": 7595,
      "Whoever": 7596,
      "buran": 7597,
      "caranya": 7598,
      "assist": 7599,
      "Pengurus": 7600,
      "sins": 7601,
      "ized": 7602,
      "bigger": 7603,
      "film": 7604,
      "ignor": 7605,
      "hadir": 7606,
      "stole": 7607,
      "argument": 7608,
      "Hidupkan": 7609,
      "Gotham": 7610,
      "kesusahan": 7611,
      "Eh": 7612,
      "Malah": 7613,
      "Mid": 7614,
      "Ol": 7615,
      "Scre": 7616,
      "gaya": 7617,
      "ganda": 7618,
      "tered": 7619,
      "arkib": 7620,
      "sepuluh": 7621,
      "uncle": 7622,
      "lean": 7623,
      "kemungkinan": 7624,
      "kecemasan": 7625,
      "berlatih": 7626,
      "shel": 7627,
      "sence": 7628,
      "ices": 7629,
      "letter": 7630,
      "diter": 7631,
      "demon": 7632,
      "desire": 7633,
      "blame": 7634,
      "menyertai": 7635,
      "lena": 7636,
      "England": 7637,
      "Speak": 7638,
      "drugs": 7639,
      "menderita": 7640,
      "communic": 7641,
      "48": 7642,
      "Dri": 7643,
      "EX": 7644,
      "Gadis": 7645,
      "nis": 7646,
      "spread": 7647,
      "yah": 7648,
      "zer": 7649,
      "adanya": 7650,
      "anding": 7651,
      "awasi": 7652,
      "iring": 7653,
      "ikh": 7654,
      "upah": 7655,
      "tekanan": 7656,
      "cakera": 7657,
      "lainnya": 7658,
      "believing": 7659,
      "marks": 7660,
      "gelapan": 7661,
      "Manusia": 7662,
      "Syn": 7663,
      "hakikat": 7664,
      "push": 7665,
      "komun": 7666,
      "bersikap": 7667,
      "ISO": 7668,
      "bayaran": 7669,
      "cellent": 7670,
      "gesa": 7671,
      "Nyah": 7672,
      "berikutnya": 7673,
      "imagine": 7674,
      "Gordon": 7675,
      "motor": 7676,
      "tribute": 7677,
      "Jon": 7678,
      "Kai": 7679,
      "Ms": 7680,
      "Same": 7681,
      "Tit": 7682,
      "Tok": 7683,
      "ladies": 7684,
      "punggung": 7685,
      "keadilan": 7686,
      "perform": 7687,
      "tersembunyi": 7688,
      "hatinya": 7689,
      "ota": 7690,
      "convers": 7691,
      "therefore": 7692,
      "compet": 7693,
      "gunanya": 7694,
      "grate": 7695,
      "pelak": 7696,
      "pakar": 7697,
      "mix": 7698,
      "membuatnya": 7699,
      "posisi": 7700,
      "ticket": 7701,
      "Project": 7702,
      "bakaran": 7703,
      "Goodbye": 7704,
      "archive": 7705,
      "doors": 7706,
      "indahan": 7707,
      "bullet": 7708,
      "connected": 7709,
      "major": 7710,
      "Major": 7711,
      "mountains": 7712,
      "mangsa": 7713,
      "Brian": 7714,
      "innocent": 7715,
      "Another": 7716,
      "Break": 7717,
      "Block": 7718,
      "Gal": 7719,
      "Jay": 7720,
      "Jac": 7721,
      "Lek": 7722,
      "Por": 7723,
      "chat": 7724,
      "faces": 7725,
      "gat": 7726,
      "jis": 7727,
      "angle": 7728,
      "kepercayaan": 7729,
      "regre": 7730,
      "shar": 7731,
      "gigi": 7732,
      "opter": 7733,
      "plate": 7734,
      "harapkan": 7735,
      "laju": 7736,
      "tanaman": 7737,
      "suppose": 7738,
      "kelakar": 7739,
      "joke": 7740,
      "Selesai": 7741,
      "pisau": 7742,
      "Edward": 7743,
      "bergantung": 7744,
      "regular": 7745,
      "written": 7746,
      "prepared": 7747,
      "menghapuskan": 7748,
      "Datuk": 7749,
      "Fort": 7750,
      "Pand": 7751,
      "ido": 7752,
      "attention": 7753,
      "ambus": 7754,
      "ress": 7755,
      "elle": 7756,
      "menaik": 7757,
      "andom": 7758,
      "terfikir": 7759,
      "manif": 7760,
      "antin": 7761,
      "ompak": 7762,
      "Perlu": 7763,
      "Inspe": 7764,
      "Sijil": 7765,
      "hidupnya": 7766,
      "hos": 7767,
      "kasihan": 7768,
      "Except": 7769,
      "Serta": 7770,
      "memangnya": 7771,
      "ANG": 7772,
      "memeriksa": 7773,
      "menyeru": 7774,
      "specific": 7775,
      "elect": 7776,
      "loaded": 7777,
      "bersihkan": 7778,
      "appointment": 7779,
      "equal": 7780,
      "tongkat": 7781,
      "chastisement": 7782,
      "Apr": 7783,
      "Bas": 7784,
      "Benda": 7785,
      "Dep": 7786,
      "Gru": 7787,
      "HP": 7788,
      "Honey": 7789,
      "Pang": 7790,
      "Rak": 7791,
      "Satan": 7792,
      "ril": 7793,
      "tung": 7794,
      "ule": 7795,
      "vous": 7796,
      "yer": 7797,
      "alnya": 7798,
      "kesudah": 7799,
      "perhaps": 7800,
      "tertarik": 7801,
      "lovely": 7802,
      "mengarut": 7803,
      "ifik": 7804,
      "bilan": 7805,
      "arahkan": 7806,
      "menjelaskan": 7807,
      "Rock": 7808,
      "benef": 7809,
      "sayangkan": 7810,
      "ships": 7811,
      "bringing": 7812,
      "lembut": 7813,
      "Emily": 7814,
      "Keluarga": 7815,
      "scream": 7816,
      "items": 7817,
      "wonderful": 7818,
      "enemies": 7819,
      "drug": 7820,
      "menyuka": 7821,
      "C_": 7822,
      "Gro": 7823,
      "Iris": 7824,
      "Pur": 7825,
      "Switch": 7826,
      "cru": 7827,
      "jet": 7828,
      "kung": 7829,
      "wing": 7830,
      "dish": 7831,
      "apost": 7832,
      "elit": 7833,
      "berkongsi": 7834,
      "sul": 7835,
      "mulia": 7836,
      "mengadakan": 7837,
      "oking": 7838,
      "dalaman": 7839,
      "bahagi": 7840,
      "teacher": 7841,
      "noon": 7842,
      "membant": 7843,
      "membenar": 7844,
      "Periksa": 7845,
      "merancang": 7846,
      "quer": 7847,
      "sanaan": 7848,
      "lanjut": 7849,
      "musnah": 7850,
      "velop": 7851,
      "purpose": 7852,
      "Ahh": 7853,
      "Jackson": 7854,
      "large": 7855,
      "Gunakan": 7856,
      "stream": 7857,
      "regard": 7858,
      "Detektif": 7859,
      "menikmati": 7860,
      "khianat": 7861,
      "//": 7862,
      "29": 7863,
      "Dest": 7864,
      "Gand": 7865,
      "NU": 7866,
      "TR": 7867,
      "TER": 7868,
      "wira": 7869,
      "berkaitan": 7870,
      "betray": 7871,
      "iro": 7872,
      "untukmu": 7873,
      "wire": 7874,
      "Sean": 7875,
      "Segala": 7876,
      "matters": 7877,
      "amatlah": 7878,
      "intro": 7879,
      "Chuck": 7880,
      "Unless": 7881,
      "sekadar": 7882,
      "Saat": 7883,
      "subject": 7884,
      "lenyap": 7885,
      "onokkan": 7886,
      "menyukai": 7887,
      "Bantuan": 7888,
      "menyelesaikan": 7889,
      "menyakiti": 7890,
      "pertanyaan": 7891,
      ".,": 7892,
      ":\"": 7893,
      "Clar": 7894,
      "Lam": 7895,
      "Wu": 7896,
      "bell": 7897,
      "cahkan": 7898,
      "cture": 7899,
      "mort": 7900,
      "naga": 7901,
      "rail": 7902,
      "ws": 7903,
      "alatan": 7904,
      "sesiapapun": 7905,
      "menjumpai": 7906,
      "bernafas": 7907,
      "rise": 7908,
      "lif": 7909,
      "takdir": 7910,
      "decl": 7911,
      "losing": 7912,
      "upa": 7913,
      "serahkan": 7914,
      "mbung": 7915,
      "erson": 7916,
      "everywhere": 7917,
      "tooth": 7918,
      "Dead": 7919,
      "ahannam": 7920,
      "Bodoh": 7921,
      "membersihkan": 7922,
      "showed": 7923,
      "gene": 7924,
      "Carter": 7925,
      "rael": 7926,
      "lumba": 7927,
      "driving": 7928,
      "currently": 7929,
      "appeared": 7930,
      "Doesn": 7931,
      "deserve": 7932,
      "http": 7933,
      "Cas": 7934,
      "Cina": 7935,
      "Fro": 7936,
      "Khan": 7937,
      "Moh": 7938,
      "Squ": 7939,
      "raya": 7940,
      "slot": 7941,
      "melepas": 7942,
      "mempercayai": 7943,
      "urut": 7944,
      "ampunkan": 7945,
      "pool": 7946,
      "common": 7947,
      "cost": 7948,
      "Siap": 7949,
      "huge": 7950,
      "folders": 7951,
      "Cooper": 7952,
      "suspect": 7953,
      "speaking": 7954,
      "south": 7955,
      "stood": 7956,
      "syuarat": 7957,
      "Sampai": 7958,
      "Africa": 7959,
      "split": 7960,
      "kenyataan": 7961,
      "April": 7962,
      "Gaya": 7963,
      "Ir": 7964,
      "Kak": 7965,
      "Lut": 7966,
      "Tn": 7967,
      "bunch": 7968,
      "asses": 7969,
      "mesyuarat": 7970,
      "kema": 7971,
      "bualan": 7972,
      "irakan": 7973,
      "suggest": 7974,
      "oker": 7975,
      "tajuk": 7976,
      "teh": 7977,
      "teen": 7978,
      "nose": 7979,
      "karan": 7980,
      "sering": 7981,
      "topi": 7982,
      "Exactly": 7983,
      "lukis": 7984,
      "instru": 7985,
      "ceder": 7986,
      "penuhi": 7987,
      "driver": 7988,
      "gemaran": 7989,
      "breath": 7990,
      "backup": 7991,
      "dollars": 7992,
      "Tinggalkan": 7993,
      "Bin": 7994,
      "Cus": 7995,
      "Ever": 7996,
      "IF": 7997,
      "Part": 7998,
      "UK": 7999,
      "bant": 8000,
      "rance": 8001,
      "sokongan": 8002,
      "tam": 8003,
      "attr": 8004,
      "bersendirian": 8005,
      "bulat": 8006,
      "kucing": 8007,
      "loose": 8008,
      "lobal": 8009,
      "cts": 8010,
      "karena": 8011,
      "puli": 8012,
      "esty": 8013,
      "pelih": 8014,
      "creation": 8015,
      "burg": 8016,
      "belief": 8017,
      "sions": 8018,
      "atasnya": 8019,
      "rison": 8020,
      "chosen": 8021,
      "tics": 8022,
      "demikianlah": 8023,
      "Sometimes": 8024,
      "pressure": 8025,
      "souls": 8026,
      "queen": 8027,
      "Model": 8028,
      "Control": 8029,
      "college": 8030,
      "cache": 8031,
      "menyediakan": 8032,
      "finger": 8033,
      "appreciate": 8034,
      "Eat": 8035,
      "Halaman": 8036,
      "Ish": 8037,
      "LO": 8038,
      "Sentiasa": 8039,
      "Talk": 8040,
      "Wes": 8041,
      "ae": 8042,
      "ires": 8043,
      "uc": 8044,
      "adap": 8045,
      "aukan": 8046,
      "kamah": 8047,
      "ghter": 8048,
      "peguam": 8049,
      "gian": 8050,
      "culik": 8051,
      "exit": 8052,
      "merta": 8053,
      "Buil": 8054,
      "hijau": 8055,
      "colm": 8056,
      "denied": 8057,
      "language": 8058,
      "pandu": 8059,
      "Mudah": 8060,
      "Pukul": 8061,
      "umpang": 8062,
      "click": 8063,
      "individ": 8064,
      "raise": 8065,
      "favorite": 8066,
      "Maggie": 8067,
      "original": 8068,
      "Doug": 8069,
      "Ash": 8070,
      "NE": 8071,
      "Rahul": 8072,
      "Sl": 8073,
      "itar": 8074,
      "diluar": 8075,
      "kesem": 8076,
      "bekalan": 8077,
      "edom": 8078,
      "uten": 8079,
      "depen": 8080,
      "cond": 8081,
      "compan": 8082,
      "certificate": 8083,
      "lapangan": 8084,
      "multi": 8085,
      "balls": 8086,
      "izinan": 8087,
      "mengakui": 8088,
      "Av": 8089,
      "Tai": 8090,
      "buntu": 8091,
      "cere": 8092,
      "clip": 8093,
      "jahanam": 8094,
      "lantai": 8095,
      "oi": 8096,
      "orrow": 8097,
      "melu": 8098,
      "awesome": 8099,
      "kuku": 8100,
      "aud": 8101,
      "Young": 8102,
      "diriku": 8103,
      "pengurus": 8104,
      "Allen": 8105,
      "kills": 8106,
      "sekiranya": 8107,
      "earlier": 8108,
      "gging": 8109,
      "dirty": 8110,
      "corner": 8111,
      "rasakan": 8112,
      "Offi": 8113,
      "faster": 8114,
      "Malcolm": 8115,
      "scene": 8116,
      "Jerman": 8117,
      "interested": 8118,
      "ability": 8119,
      "pilot": 8120,
      "membela": 8121,
      "matically": 8122,
      "pepijat": 8123,
      "%%": 8124,
      "400": 8125,
      "Fed": 8126,
      "Off": 8127,
      "SH": 8128,
      "Source": 8129,
      "bby": 8130,
      "gather": 8131,
      "jack": 8132,
      "pangkat": 8133,
      "pautan": 8134,
      "erti": 8135,
      "angel": 8136,
      "sekurang": 8137,
      "letupan": 8138,
      "agent": 8139,
      "antas": 8140,
      "kering": 8141,
      "Indi": 8142,
      "batalkan": 8143,
      "kapten": 8144,
      "court": 8145,
      "Patrick": 8146,
      "sending": 8147,
      "fixed": 8148,
      "Output": 8149,
      "according": 8150,
      "Knowing": 8151,
      "tuduhan": 8152,
      "Japanese": 8153,
      "investig": 8154,
      "28": 8155,
      "Agen": 8156,
      "Eric": 8157,
      "Kali": 8158,
      "S_": 8159,
      "Sumber": 8160,
      "ey": 8161,
      "uah": 8162,
      "zo": 8163,
      "ened": 8164,
      "arakan": 8165,
      "dipasang": 8166,
      "unjust": 8167,
      "leaves": 8168,
      "timb": 8169,
      "topeng": 8170,
      "berbual": 8171,
      "esor": 8172,
      "chan": 8173,
      "Such": 8174,
      "putting": 8175,
      "Aren": 8176,
      "sekalipun": 8177,
      "pertar": 8178,
      "rescu": 8179,
      "Kalaulah": 8180,
      "specify": 8181,
      "pusing": 8182,
      "response": 8183,
      "animal": 8184,
      "breathe": 8185,
      "Kereta": 8186,
      "menyukainya": 8187,
      "\"\"": 8188,
      "Again": 8189,
      "Bak": 8190,
      "Eli": 8191,
      "GR": 8192,
      "Game": 8193,
      "Icon": 8194,
      "Ladies": 8195,
      "fate": 8196,
      "kenderaan": 8197,
      "anian": 8198,
      "dipercayai": 8199,
      "istr": 8200,
      "ado": 8201,
      "keseluruhan": 8202,
      "memburu": 8203,
      "membolehkan": 8204,
      "imanya": 8205,
      "siasat": 8206,
      "menganggap": 8207,
      "outta": 8208,
      "entasi": 8209,
      "Security": 8210,
      "sejauh": 8211,
      "iley": 8212,
      "counts": 8213,
      "boyfriend": 8214,
      "greatest": 8215,
      "cribe": 8216,
      "gerakkan": 8217,
      "menyeronokkan": 8218,
      "mendengarnya": 8219,
      "ators": 8220,
      "Empat": 8221,
      "Saluran": 8222,
      "relation": 8223,
      "profile": 8224,
      "SAW": 8225,
      "menyempur": 8226,
      "Supaya": 8227,
      "usahakan": 8228,
      "Better": 8229,
      "menyakitkan": 8230,
      "AI": 8231,
      "Aar": 8232,
      "KE": 8233,
      "Kanan": 8234,
      "Mata": 8235,
      "Mulakan": 8236,
      "Santa": 8237,
      "Telah": 8238,
      "Wah": 8239,
      "Were": 8240,
      "dada": 8241,
      "hou": 8242,
      "kni": 8243,
      "inju": 8244,
      "semest": 8245,
      "orm": 8246,
      "orban": 8247,
      "embar": 8248,
      "lions": 8249,
      "bother": 8250,
      "siapkan": 8251,
      "manage": 8252,
      "denganku": 8253,
      "pencuri": 8254,
      "cuments": 8255,
      "intas": 8256,
      "prefer": 8257,
      "ayahnya": 8258,
      "melaksanakan": 8259,
      "helping": 8260,
      "warn": 8261,
      "risiko": 8262,
      "closer": 8263,
      "transfer": 8264,
      "Tomorrow": 8265,
      "Bahagian": 8266,
      "Calm": 8267,
      "responsible": 8268,
      "darkness": 8269,
      "Sarjan": 8270,
      "deliver": 8271,
      "Kedua": 8272,
      "integer": 8273,
      "mematuhi": 8274,
      "merosakkan": 8275,
      "keturunan": 8276,
      "75": 8277,
      "Full": 8278,
      "Pil": 8279,
      "Vis": 8280,
      "cards": 8281,
      "flying": 8282,
      "gust": 8283,
      "lord": 8284,
      "atuhkan": 8285,
      "online": 8286,
      "distri": 8287,
      "dikembalikan": 8288,
      "lest": 8289,
      "perju": 8290,
      "stro": 8291,
      "dengaran": 8292,
      "dew": 8293,
      "ained": 8294,
      "shown": 8295,
      "penjahat": 8296,
      "trash": 8297,
      "meren": 8298,
      "pengalaman": 8299,
      "Chase": 8300,
      "Dev": 8301,
      "tenggel": 8302,
      "kelab": 8303,
      "Adalah": 8304,
      "Josh": 8305,
      "Fucking": 8306,
      "Mommy": 8307,
      "shooting": 8308,
      "crypt": 8309,
      "Current": 8310,
      "Lagipun": 8311,
      "Truth": 8312,
      "British": 8313,
      "kesempatan": 8314,
      "Amat": 8315,
      "Ell": 8316,
      "Fungsi": 8317,
      "Hide": 8318,
      "Ki": 8319,
      "Pun": 8320,
      "Sat": 8321,
      "gri": 8322,
      "nan": 8323,
      "natur": 8324,
      "zza": 8325,
      "sesi": 8326,
      "sever": 8327,
      "bebasan": 8328,
      "sui": 8329,
      "masak": 8330,
      "ources": 8331,
      "menyed": 8332,
      "cake": 8333,
      "pakcik": 8334,
      "Selain": 8335,
      "Forgiving": 8336,
      "ketawa": 8337,
      "katakanlah": 8338,
      "Prince": 8339,
      "salinan": 8340,
      "Jean": 8341,
      "wahyukan": 8342,
      "orizontal": 8343,
      "cederakan": 8344,
      ".]": 8345,
      "36": 8346,
      "Az": 8347,
      "Bunyi": 8348,
      "Care": 8349,
      "Jones": 8350,
      "Lak": 8351,
      "Sw": 8352,
      "_C": 8353,
      "gut": 8354,
      "jaya": 8355,
      "lunch": 8356,
      "script": 8357,
      "tty": 8358,
      "walah": 8359,
      "ename": 8360,
      "diubah": 8361,
      "kacang": 8362,
      "heal": 8363,
      "height": 8364,
      "acket": 8365,
      "actions": 8366,
      "former": 8367,
      "umpul": 8368,
      "atic": 8369,
      "Sekurang": 8370,
      "Sepatutnya": 8371,
      "fies": 8372,
      "confirm": 8373,
      "Kepal": 8374,
      "icked": 8375,
      "pengepala": 8376,
      "gradi": 8377,
      "Chief": 8378,
      "batan": 8379,
      "rugi": 8380,
      "ditentukan": 8381,
      "menghas": 8382,
      "tempatnya": 8383,
      "cermin": 8384,
      "starts": 8385,
      "birds": 8386,
      "Morning": 8387,
      "Dark": 8388,
      "objects": 8389,
      "tape": 8390,
      "hancurkan": 8391,
      "mengharapkan": 8392,
      "Paradise": 8393,
      "neighbor": 8394,
      "manifest": 8395,
      "Mic": 8396,
      "Sav": 8397,
      "Valu": 8398,
      "bridge": 8399,
      "dwell": 8400,
      "fought": 8401,
      "jid": 8402,
      "pair": 8403,
      "puran": 8404,
      "sn": 8405,
      "anmu": 8406,
      "alis": 8407,
      "alur": 8408,
      "asr": 8409,
      "persembahan": 8410,
      "often": 8411,
      "acur": 8412,
      "irt": 8413,
      "ented": 8414,
      "Thor": 8415,
      "gue": 8416,
      "sens": 8417,
      "owner": 8418,
      "pengu": 8419,
      "discus": 8420,
      "epi": 8421,
      "Document": 8422,
      "standard": 8423,
      "empatkan": 8424,
      "rindukan": 8425,
      "ALL": 8426,
      "Panel": 8427,
      "flag": 8428,
      "Windows": 8429,
      "mengesan": 8430,
      "Tunduk": 8431,
      "guilty": 8432,
      "Ass": 8433,
      "Bot": 8434,
      "Cinta": 8435,
      "Dil": 8436,
      "Gil": 8437,
      "Jahannam": 8438,
      "Lie": 8439,
      "Rel": 8440,
      "Sop": 8441,
      "Tangan": 8442,
      "Wat": 8443,
      "scan": 8444,
      "ski": 8445,
      "tat": 8446,
      "wine": 8447,
      "zak": 8448,
      "alty": 8449,
      "dibawah": 8450,
      "dibuang": 8451,
      "agram": 8452,
      "imbas": 8453,
      "mani": 8454,
      "enty": 8455,
      "maklum": 8456,
      "Bersedia": 8457,
      "lihatkan": 8458,
      "Chen": 8459,
      "spes": 8460,
      "pelanggan": 8461,
      "Until": 8462,
      "itions": 8463,
      "cars": 8464,
      "checked": 8465,
      "seminggu": 8466,
      "kemur": 8467,
      "keeps": 8468,
      "counter": 8469,
      "Harus": 8470,
      "Lucy": 8471,
      "profil": 8472,
      "impakan": 8473,
      "Stark": 8474,
      "stronger": 8475,
      "setengahnya": 8476,
      "Latin": 8477,
      "tangga": 8478,
      "bacakan": 8479,
      "dewasa": 8480,
      "Bell": 8481,
      "Dy": 8482,
      "Elena": 8483,
      "Rela": 8484,
      "SM": 8485,
      "inat": 8486,
      "kegelapan": 8487,
      "berbicara": 8488,
      "yangkan": 8489,
      "stage": 8490,
      "mengek": 8491,
      "katanya": 8492,
      "teka": 8493,
      "convin": 8494,
      "Peranti": 8495,
      "pelbagai": 8496,
      "Israel": 8497,
      "ajari": 8498,
      "speech": 8499,
      "percent": 8500,
      "Toggle": 8501,
      "darling": 8502,
      "Aplikasi": 8503,
      "Luke": 8504,
      "sambung": 8505,
      "wenty": 8506,
      "Without": 8507,
      "bulkan": 8508,
      "Bahasa": 8509,
      "Pakistan": 8510,
      "Spider": 8511,
      "pindahkan": 8512,
      "storm": 8513,
      "Walter": 8514,
      "Caroline": 8515,
      "regret": 8516,
      "Ce": 8517,
      "Dist": 8518,
      "Mia": 8519,
      "Plan": 8520,
      "Paci": 8521,
      "Ring": 8522,
      "bun": 8523,
      "gereja": 8524,
      "hr": 8525,
      "sni": 8526,
      "atasi": 8527,
      "dict": 8528,
      "diserang": 8529,
      "beast": 8530,
      "decre": 8531,
      "cei": 8532,
      "cek": 8533,
      "shame": 8534,
      "passion": 8535,
      "Peri": 8536,
      "Chan": 8537,
      "daan": 8538,
      "pemandu": 8539,
      "mainkan": 8540,
      "bertambah": 8541,
      "bertarung": 8542,
      "kidnap": 8543,
      "Selection": 8544,
      "Maksudku": 8545,
      "hambaNya": 8546,
      "GPS": 8547,
      "club": 8548,
      "SSL": 8549,
      "endalikan": 8550,
      "pangkalan": 8551,
      "PIX": 8552,
      "Shoot": 8553,
      "involved": 8554,
      "memusnahkan": 8555,
      "Jacob": 8556,
      "Lekas": 8557,
      "Relax": 8558,
      "02": 8559,
      "Blu": 8560,
      "Dor": 8561,
      "Perempuan": 8562,
      "ases": 8563,
      "gt": 8564,
      "sanya": 8565,
      "tent": 8566,
      "angkasa": 8567,
      "kuk": 8568,
      "entation": 8569,
      "quot": 8570,
      "pengganas": 8571,
      "disput": 8572,
      "cock": 8573,
      "anks": 8574,
      "brary": 8575,
      "menghen": 8576,
      "percuma": 8577,
      "warm": 8578,
      "played": 8579,
      "dings": 8580,
      "sedikitpun": 8581,
      "pesta": 8582,
      "staying": 8583,
      "buruknya": 8584,
      "celer": 8585,
      "Baguslah": 8586,
      "visual": 8587,
      "libatkan": 8588,
      "apartment": 8589,
      "experience": 8590,
      "provided": 8591,
      "claim": 8592,
      "Password": 8593,
      "memelihara": 8594,
      "Aaron": 8595,
      "DN": 8596,
      "Iz": 8597,
      "Las": 8598,
      "Smith": 8599,
      "fon": 8600,
      "hic": 8601,
      "paip": 8602,
      "tiket": 8603,
      "fornia": 8604,
      "older": 8605,
      "ancaman": 8606,
      "Dewa": 8607,
      "Mendengar": 8608,
      "Arah": 8609,
      "Penapis": 8610,
      "cubaan": 8611,
      "bawakan": 8612,
      "lights": 8613,
      "Amaran": 8614,
      "Versi": 8615,
      "frame": 8616,
      "client": 8617,
      "IMP": 8618,
      "mengingati": 8619,
      "forbidden": 8620,
      "dukacita": 8621,
      "Fitz": 8622,
      "Pacific": 8623,
      "Pul": 8624,
      "aver": 8625,
      "jalah": 8626,
      "scr": 8627,
      "sec": 8628,
      "dikan": 8629,
      "dilahirkan": 8630,
      "melebih": 8631,
      "timur": 8632,
      "menanggung": 8633,
      "heat": 8634,
      "bumbung": 8635,
      "edge": 8636,
      "roman": 8637,
      "boo": 8638,
      "chall": 8639,
      "utk": 8640,
      "tukang": 8641,
      "degil": 8642,
      "deleted": 8643,
      "omi": 8644,
      "telur": 8645,
      "cian": 8646,
      "ryan": 8647,
      "jikan": 8648,
      "senyum": 8649,
      "plot": 8650,
      "Keada": 8651,
      "brow": 8652,
      "Att": 8653,
      "earned": 8654,
      "games": 8655,
      "Jeneral": 8656,
      "ditutup": 8657,
      "irim": 8658,
      "Messengers": 8659,
      "mengerikan": 8660,
      "Alihkan": 8661,
      "Russia": 8662,
      "Potter": 8663,
      "symbol": 8664,
      "pertemuan": 8665,
      "soldiers": 8666,
      "ceroboh": 8667,
      "energy": 8668,
      "grateful": 8669,
      "Rot": 8670,
      "Rose": 8671,
      "Slow": 8672,
      "ejek": 8673,
      "gantung": 8674,
      "lindungi": 8675,
      "nabi": 8676,
      "umum": 8677,
      "vak": 8678,
      "diction": 8679,
      "kegemaran": 8680,
      "meningkat": 8681,
      "berasal": 8682,
      "bertukar": 8683,
      "rif": 8684,
      "suk": 8685,
      "lul": 8686,
      "iksel": 8687,
      "Sek": 8688,
      "penolong": 8689,
      "trad": 8690,
      "maknanya": 8691,
      "wills": 8692,
      "kayu": 8693,
      "owned": 8694,
      "preview": 8695,
      "Los": 8696,
      "Selatan": 8697,
      "mons": 8698,
      "sampaikan": 8699,
      "busan": 8700,
      "keretapi": 8701,
      "corn": 8702,
      "Claire": 8703,
      "pintasan": 8704,
      "animals": 8705,
      "imagin": 8706,
      "Sedang": 8707,
      "physi": 8708,
      "LDAP": 8709,
      "Plugin": 8710,
      "Sedikit": 8711,
      "revelations": 8712,
      "California": 8713,
      "victory": 8714,
      "Matt": 8715,
      "Pent": 8716,
      "SU": 8717,
      "cok": 8718,
      "dumb": 8719,
      "ee": 8720,
      "gol": 8721,
      "lm": 8722,
      "render": 8723,
      "utusan": 8724,
      "dic": 8725,
      "advice": 8726,
      "keping": 8727,
      "kemari": 8728,
      "usion": 8729,
      "tertanya": 8730,
      "etakan": 8731,
      "memakan": 8732,
      "detik": 8733,
      "untuknya": 8734,
      "Secret": 8735,
      "Information": 8736,
      "provide": 8737,
      "spar": 8738,
      "istana": 8739,
      "vig": 8740,
      "sets": 8741,
      "crow": 8742,
      "Both": 8743,
      "poly": 8744,
      "glass": 8745,
      "pusingan": 8746,
      "habisan": 8747,
      "rupa": 8748,
      "rupanya": 8749,
      "Speci": 8750,
      "Profesor": 8751,
      "Russian": 8752,
      "teknologi": 8753,
      "approach": 8754,
      "Esok": 8755,
      "keberatan": 8756,
      "melampaui": 8757,
      "membenarkan": 8758,
      "Keadaan": 8759,
      "Bapa": 8760,
      "Center": 8761,
      "Hampir": 8762,
      "TA": 8763,
      "Titik": 8764,
      "Utara": 8765,
      "diperintahkan": 8766,
      "aduh": 8767,
      "replace": 8768,
      "ilkan": 8769,
      "esh": 8770,
      "beer": 8771,
      "sujud": 8772,
      "memotong": 8773,
      "stabil": 8774,
      "cean": 8775,
      "Seven": 8776,
      "fier": 8777,
      "notice": 8778,
      "confir": 8779,
      "cules": 8780,
      "baring": 8781,
      "Chi": 8782,
      "ditak": 8783,
      "pelindung": 8784,
      "syiri": 8785,
      "nyah": 8786,
      "Menurut": 8787,
      "monitor": 8788,
      "tribut": 8789,
      "malang": 8790,
      "shoes": 8791,
      "breaking": 8792,
      "nesses": 8793,
      "Calendar": 8794,
      "stock": 8795,
      "Benarkan": 8796,
      "interesting": 8797,
      "spirit": 8798,
      "Hapuskan": 8799,
      "science": 8800,
      "recognize": 8801,
      "bastard": 8802,
      "selisihan": 8803,
      "utenant": 8804,
      "syirik": 8805,
      "Les": 8806,
      "Rever": 8807,
      "Stu": 8808,
      "aaf": 8809,
      "lad": 8810,
      "malah": 8811,
      "mouse": 8812,
      "inn": 8813,
      "sepadan": 8814,
      "dijadikan": 8815,
      "kek": 8816,
      "ketahu": 8817,
      "tidings": 8818,
      "reached": 8819,
      "berse": 8820,
      "berlalu": 8821,
      "irkan": 8822,
      "cep": 8823,
      "gotten": 8824,
      "president": 8825,
      "coven": 8826,
      "ordered": 8827,
      "bestow": 8828,
      "Leon": 8829,
      "pemilik": 8830,
      "folk": 8831,
      "shows": 8832,
      "ksara": 8833,
      "inggalkan": 8834,
      "Sergeant": 8835,
      "mempertahankan": 8836,
      "kingdom": 8837,
      "Masuklah": 8838,
      "rakaman": 8839,
      "Alih": 8840,
      "lengkap": 8841,
      "concerning": 8842,
      "Bonnie": 8843,
      "FILE": 8844,
      "surprise": 8845,
      "khidmatan": 8846,
      "powers": 8847,
      "Pooja": 8848,
      "conversation": 8849,
      "Value": 8850,
      "\";": 8851,
      "Face": 8852,
      "LS": 8853,
      "Link": 8854,
      "Mos": 8855,
      "Ped": 8856,
      "Sah": 8857,
      "Shad": 8858,
      "Ward": 8859,
      "ears": 8860,
      "gory": 8861,
      "rough": 8862,
      "altern": 8863,
      "sememangnya": 8864,
      "diso": 8865,
      "berhala": 8866,
      "eman": 8867,
      "abad": 8868,
      "ablo": 8869,
      "ghaib": 8870,
      "stat": 8871,
      "ching": 8872,
      "oken": 8873,
      "niat": 8874,
      "Second": 8875,
      "Thou": 8876,
      "ourne": 8877,
      "const": 8878,
      "seni": 8879,
      "membang": 8880,
      "pertimb": 8881,
      "bile": 8882,
      "grave": 8883,
      "ancel": 8884,
      "Read": 8885,
      "Barb": 8886,
      "partners": 8887,
      "huruf": 8888,
      "clearly": 8889,
      "Absolutely": 8890,
      "Namanya": 8891,
      "wondering": 8892,
      "Konfigurasi": 8893,
      "pintar": 8894,
      "Robin": 8895,
      "arakat": 8896,
      "teknik": 8897,
      "cadangkan": 8898,
      "Wanita": 8899,
      "Kawasan": 8900,
      "occurred": 8901,
      "emergency": 8902,
      "telinga": 8903,
      "Ban": 8904,
      "Cara": 8905,
      "Fur": 8906,
      "Hill": 8907,
      "Iblis": 8908,
      "Vari": 8909,
      "bright": 8910,
      "fed": 8911,
      "gum": 8912,
      "gasan": 8913,
      "gres": 8914,
      "kne": 8915,
      "nature": 8916,
      "psi": 8917,
      "sle": 8918,
      "wound": 8919,
      "walau": 8920,
      "yarakat": 8921,
      "zero": 8922,
      "setahun": 8923,
      "meta": 8924,
      "undo": 8925,
      "repent": 8926,
      "elder": 8927,
      "owong": 8928,
      "awarkan": 8929,
      "abandon": 8930,
      "iron": 8931,
      "stories": 8932,
      "verses": 8933,
      "nota": 8934,
      "najis": 8935,
      "tema": 8936,
      "melap": 8937,
      "Negara": 8938,
      "player": 8939,
      "homes": 8940,
      "foto": 8941,
      "header": 8942,
      "contents": 8943,
      "kurangan": 8944,
      "opening": 8945,
      "Office": 8946,
      "grees": 8947,
      "Pautan": 8948,
      "contains": 8949,
      "bersamanya": 8950,
      "Bawah": 8951,
      "nuts": 8952,
      "Besides": 8953,
      "kecewa": 8954,
      "menyempurnakan": 8955,
      "'...": 8956,
      "Aksara": 8957,
      "Ctr": 8958,
      "Card": 8959,
      "Gy": 8960,
      "Ganti": 8961,
      "Iron": 8962,
      "Tahu": 8963,
      "Tex": 8964,
      "Tentang": 8965,
      "gedit": 8966,
      "nar": 8967,
      "national": 8968,
      "ratus": 8969,
      "yard": 8970,
      "indu": 8971,
      "ency": 8972,
      "onds": 8973,
      "rebel": 8974,
      "bersetuju": 8975,
      "tump": 8976,
      "aiman": 8977,
      "agam": 8978,
      "terkena": 8979,
      "river": 8980,
      "memimpin": 8981,
      "roh": 8982,
      "stead": 8983,
      "chip": 8984,
      "ulat": 8985,
      "dahsy": 8986,
      "duanya": 8987,
      "Ohh": 8988,
      "jijik": 8989,
      "menyenangkan": 8990,
      "tenter": 8991,
      "hadapi": 8992,
      "previous": 8993,
      "iano": 8994,
      "besaran": 8995,
      "ajah": 8996,
      "carinya": 8997,
      "wrap": 8998,
      "warri": 8999,
      "amanan": 9000,
      "motherfucker": 9001,
      "labah": 9002,
      "custom": 9003,
      "Pakcik": 9004,
      "wujudkan": 9005,
      "favour": 9006,
      "bidang": 9007,
      "Tahun": 9008,
      "safety": 9009,
      "Sherman": 9010,
      "hoping": 9011,
      "smoke": 9012,
      "Network": 9013,
      "Kosongkan": 9014,
      "nafsu": 9015,
      "fficient": 9016,
      "menghendaki": 9017,
      "Aye": 9018,
      "Akaun": 9019,
      "Baj": 9020,
      "Emp": 9021,
      "Gang": 9022,
      "Isi": 9023,
      "Rol": 9024,
      "RGB": 9025,
      "Riley": 9026,
      "Writ": 9027,
      "dered": 9028,
      "fake": 9029,
      "geng": 9030,
      "hun": 9031,
      "tour": 9032,
      "encod": 9033,
      "ald": 9034,
      "amer": 9035,
      "dimen": 9036,
      "mendarat": 9037,
      "berulang": 9038,
      "bernilai": 9039,
      "peringkat": 9040,
      "memapar": 9041,
      "stesen": 9042,
      "botol": 9043,
      "sibility": 9044,
      "upun": 9045,
      "gua": 9046,
      "sole": 9047,
      "plant": 9048,
      "menyembunyikan": 9049,
      "puji": 9050,
      "biasanya": 9051,
      "Beau": 9052,
      "pelajaran": 9053,
      "menghor": 9054,
      "Antar": 9055,
      "Gray": 9056,
      "tangannya": 9057,
      "Manager": 9058,
      "Francis": 9059,
      "brings": 9060,
      "Point": 9061,
      "mengutus": 9062,
      "tapak": 9063,
      "menyaksikan": 9064,
      "Officer": 9065,
      "Kepala": 9066,
      "55": 9067,
      "Bull": 9068,
      "Ev": 9069,
      "FS": 9070,
      "Mir": 9071,
      "cash": 9072,
      "ejen": 9073,
      "flat": 9074,
      "lautan": 9075,
      "akam": 9076,
      "attribute": 9077,
      "kesana": 9078,
      "refu": 9079,
      "kain": 9080,
      "bersiap": 9081,
      "bermimpi": 9082,
      "tured": 9083,
      "membe": 9084,
      "imah": 9085,
      "sialan": 9086,
      "upstairs": 9087,
      "nic": 9088,
      "penjenayah": 9089,
      "maksimum": 9090,
      "selatan": 9091,
      "ify": 9092,
      "pocket": 9093,
      "database": 9094,
      "kins": 9095,
      "caused": 9096,
      "Level": 9097,
      "ounce": 9098,
      "settle": 9099,
      "piness": 9100,
      "nights": 9101,
      "bene": 9102,
      "mengambilnya": 9103,
      "understanding": 9104,
      "Guy": 9105,
      "Merlyn": 9106,
      "penjaga": 9107,
      "Hercules": 9108,
      "appears": 9109,
      "Singh": 9110,
      "tification": 9111,
      "Cakera": 9112,
      "mengesahkan": 9113,
      "Vegas": 9114,
      "memasukkan": 9115,
      "gigit": 9116,
      "chicken": 9117,
      "elektrik": 9118,
      "Cast": 9119,
      "Dun": 9120,
      "GIMP": 9121,
      "Id": 9122,
      "Pis": 9123,
      "Sum": 9124,
      "Tahan": 9125,
      "bble": 9126,
      "jem": 9127,
      "lapan": 9128,
      "papa": 9129,
      "pup": 9130,
      "zi": 9131,
      "iny": 9132,
      "alaluan": 9133,
      "sepak": 9134,
      "assure": 9135,
      "theme": 9136,
      "repeat": 9137,
      "peratus": 9138,
      "terlihat": 9139,
      "suck": 9140,
      "sip": 9141,
      "chair": 9142,
      "church": 9143,
      "ods": 9144,
      "usty": 9145,
      "katalaluan": 9146,
      "cting": 9147,
      "served": 9148,
      "membac": 9149,
      "Suatu": 9150,
      "betulan": 9151,
      "folks": 9152,
      "Menteri": 9153,
      "bisnes": 9154,
      "kejayaan": 9155,
      "untungan": 9156,
      "Speed": 9157,
      "Priya": 9158,
      "Starling": 9159,
      "pieces": 9160,
      "argumen": 9161,
      "untut": 9162,
      "khianati": 9163,
      "ligence": 9164,
      "Screen": 9165,
      "0x": 9166,
      "CC": 9167,
      "Chat": 9168,
      "Hard": 9169,
      "Land": 9170,
      "Os": 9171,
      "Pablo": 9172,
      "Xi": 9173,
      "furan": 9174,
      "galan": 9175,
      "pill": 9176,
      "smile": 9177,
      "zone": 9178,
      "orong": 9179,
      ".....": 9180,
      "tir": 9181,
      "release": 9182,
      "escap": 9183,
      "sijil": 9184,
      "sail": 9185,
      "katil": 9186,
      "solution": 9187,
      "serah": 9188,
      "poison": 9189,
      "intar": 9190,
      "Teruk": 9191,
      "Isteri": 9192,
      "trick": 9193,
      "showing": 9194,
      "Dragon": 9195,
      "menerimanya": 9196,
      "seriously": 9197,
      "Anyone": 9198,
      "anjakan": 9199,
      "sleeping": 9200,
      "memaksa": 9201,
      "vices": 9202,
      "memasuki": 9203,
      "sweetheart": 9204,
      "Stylus": 9205,
      "shadow": 9206,
      "berlakunya": 9207,
      "Soph": 9208,
      "ketahuilah": 9209,
      "?”": 9210,
      "Cait": 9211,
      "Fight": 9212,
      "Gir": 9213,
      "Gent": 9214,
      "Mill": 9215,
      "Nay": 9216,
      "Van": 9217,
      "okan": 9218,
      "xi": 9219,
      "yen": 9220,
      "inkan": 9221,
      "ato": 9222,
      "arap": 9223,
      "alakan": 9224,
      "lemb": 9225,
      "reput": 9226,
      "vehic": 9227,
      "staff": 9228,
      "sikap": 9229,
      "tidakkah": 9230,
      "ception": 9231,
      "mengira": 9232,
      "wives": 9233,
      "gaji": 9234,
      "ampiri": 9235,
      "plans": 9236,
      "Perlahan": 9237,
      "whenever": 9238,
      "ancam": 9239,
      "besok": 9240,
      "pizza": 9241,
      "Ange": 9242,
      "portun": 9243,
      "Maria": 9244,
      "parts": 9245,
      "Dulu": 9246,
      "pembantu": 9247,
      "attacked": 9248,
      "simbol": 9249,
      "bottle": 9250,
      "Putih": 9251,
      "tandas": 9252,
      "menghukum": 9253,
      "Kalendar": 9254,
      "bangkitkan": 9255,
      "authority": 9256,
      "apologize": 9257,
      "dilaksanakan": 9258,
      "knife": 9259,
      "Best": 9260,
      "Fer": 9261,
      "Kil": 9262,
      "Minta": 9263,
      "Spr": 9264,
      "bond": 9265,
      "dang": 9266,
      "dete": 9267,
      "krip": 9268,
      "sink": 9269,
      "wow": 9270,
      "amb": 9271,
      "sess": 9272,
      "severe": 9273,
      "iter": 9274,
      "melahirkan": 9275,
      "aper": 9276,
      "kekaya": 9277,
      "ridi": 9278,
      "akuan": 9279,
      "boot": 9280,
      "Seb": 9281,
      "belih": 9282,
      "dapur": 9283,
      "Perang": 9284,
      "Yea": 9285,
      "Terminal": 9286,
      "jalannya": 9287,
      "kasar": 9288,
      "anced": 9289,
      "burning": 9290,
      "parse": 9291,
      "achi": 9292,
      "kembang": 9293,
      "Pretty": 9294,
      "Comp": 9295,
      "Pasifik": 9296,
      "Guess": 9297,
      "Team": 9298,
      "Tele": 9299,
      "daddy": 9300,
      "simpati": 9301,
      "Normal": 9302,
      "kekufuran": 9303,
      "alihkan": 9304,
      "IMAP": 9305,
      "Nyalah": 9306,
      "trees": 9307,
      "kekuasaanNya": 9308,
      "ordinary": 9309,
      "99": 9310,
      "AD": 9311,
      "Action": 9312,
      "Bank": 9313,
      "Lance": 9314,
      "Mati": 9315,
      "OL": 9316,
      "PIN": 9317,
      "Scar": 9318,
      "Tek": 9319,
      "XML": 9320,
      "ez": 9321,
      "hana": 9322,
      "sli": 9323,
      "ux": 9324,
      "aris": 9325,
      "ority": 9326,
      "apang": 9327,
      "token": 9328,
      "berundur": 9329,
      "berbanding": 9330,
      "ility": 9331,
      "awas": 9332,
      "rix": 9333,
      "lien": 9334,
      "strang": 9335,
      "umer": 9336,
      "atian": 9337,
      "peni": 9338,
      "penat": 9339,
      "Item": 9340,
      "opportun": 9341,
      "consid": 9342,
      "menyanyi": 9343,
      "pure": 9344,
      "Berhati": 9345,
      "aside": 9346,
      "ables": 9347,
      "parameter": 9348,
      "curse": 9349,
      "seksi": 9350,
      "bandingan": 9351,
      "planning": 9352,
      "Trash": 9353,
      "Cheers": 9354,
      "pisah": 9355,
      "kiraan": 9356,
      "Tengah": 9357,
      "fasik": 9358,
      "mengejut": 9359,
      "unior": 9360,
      "Special": 9361,
      "mahkamah": 9362,
      "gangguan": 9363,
      "Holly": 9364,
      "gemuk": 9365,
      "arrived": 9366,
      "knock": 9367,
      "meliputi": 9368,
      "journey": 9369,
      "teguh": 9370,
      "komunikasi": 9371,
      "Cour": 9372,
      "Count": 9373,
      "Ide": 9374,
      "Lily": 9375,
      "Water": 9376,
      "cum": 9377,
      "ky": 9378,
      "tw": 9379,
      "ukur": 9380,
      "..\"": 9381,
      "kehendak": 9382,
      "bersungguh": 9383,
      "berpindah": 9384,
      "awasanya": 9385,
      "lulus": 9386,
      "determin": 9387,
      "mengampunkan": 9388,
      "Akulah": 9389,
      "pendek": 9390,
      "guards": 9391,
      "cially": 9392,
      "menyel": 9393,
      "Shane": 9394,
      "Liu": 9395,
      "liter": 9396,
      "babi": 9397,
      "Mode": 9398,
      "ization": 9399,
      "volume": 9400,
      "Pemain": 9401,
      "menguji": 9402,
      "books": 9403,
      "Namun": 9404,
      "displayed": 9405,
      "simpanan": 9406,
      "details": 9407,
      "menyesatkan": 9408,
      "continu": 9409,
      "keberanian": 9410,
      "pertempuran": 9411,
      "Teddy": 9412,
      "results": 9413,
      "kelajuan": 9414,
      "Waktu": 9415,
      "Children": 9416,
      "Ctrl": 9417,
      "Angeles": 9418,
      "considered": 9419,
      "250": 9420,
      "Bol": 9421,
      "dup": 9422,
      "haj": 9423,
      "nat": 9424,
      "insan": 9425,
      "dipenuhi": 9426,
      "asu": 9427,
      "perubatan": 9428,
      "hem": 9429,
      "limit": 9430,
      "ute": 9431,
      "debu": 9432,
      "entered": 9433,
      "traf": 9434,
      "worthy": 9435,
      "based": 9436,
      "dated": 9437,
      "Berita": 9438,
      "progress": 9439,
      "comel": 9440,
      "disc": 9441,
      "Sha": 9442,
      "spring": 9443,
      "bagiku": 9444,
      "brush": 9445,
      "seless": 9446,
      "marilah": 9447,
      "sejati": 9448,
      "crack": 9449,
      "Export": 9450,
      "resol": 9451,
      "Peace": 9452,
      "kalendar": 9453,
      "feelings": 9454,
      "Coming": 9455,
      "famous": 9456,
      "stayed": 9457,
      "Julian": 9458,
      "lawanan": 9459,
      "tumbuh": 9460,
      "berkesan": 9461,
      "putuskan": 9462,
      "hypo": 9463,
      "Latar": 9464,
      "widget": 9465,
      "incredi": 9466,
      "gardens": 9467,
      "Operasi": 9468,
      "Radio": 9469,
      "Eksport": 9470,
      "ikhlas": 9471,
      "Bit": 9472,
      "CV": 9473,
      "Hour": 9474,
      "Jawab": 9475,
      "Kun": 9476,
      "Tal": 9477,
      "Troy": 9478,
      "Ugh": 9479,
      "bust": 9480,
      "dry": 9481,
      "hip": 9482,
      "ibadat": 9483,
      "zon": 9484,
      "eni": 9485,
      "sees": 9486,
      "oni": 9487,
      "melimpah": 9488,
      "ache": 9489,
      "inion": 9490,
      "uta": 9491,
      "deb": 9492,
      "liked": 9493,
      "temp": 9494,
      "tempor": 9495,
      "matanya": 9496,
      "nake": 9497,
      "mentadbir": 9498,
      "pulled": 9499,
      "crets": 9500,
      "happiness": 9501,
      "jej": 9502,
      "sejen": 9503,
      "Penges": 9504,
      "Pegawai": 9505,
      "Meet": 9506,
      "capable": 9507,
      "Probably": 9508,
      "Grant": 9509,
      "unyinya": 9510,
      "messengers": 9511,
      "Fran": 9512,
      "larangan": 9513,
      "Jamie": 9514,
      "pants": 9515,
      "Wilson": 9516,
      "River": 9517,
      "Gerak": 9518,
      "pertarungan": 9519,
      "relationship": 9520,
      "27": 9521,
      "Amen": 9522,
      "Bani": 9523,
      "Camp": 9524,
      "Ciri": 9525,
      "Maya": 9526,
      "Mont": 9527,
      "PC": 9528,
      "Photo": 9529,
      "Sid": 9530,
      "UI": 9531,
      "cair": 9532,
      "gro": 9533,
      "hh": 9534,
      "wers": 9535,
      "armed": 9536,
      "represent": 9537,
      "mence": 9538,
      "ilies": 9539,
      "usually": 9540,
      "agle": 9541,
      "beban": 9542,
      "bucks": 9543,
      "memories": 9544,
      "mengingatkan": 9545,
      "ihal": 9546,
      "shirt": 9547,
      "Tiger": 9548,
      "masyarakat": 9549,
      "contract": 9550,
      "polic": 9551,
      "Peris": 9552,
      "pengen": 9553,
      "disambung": 9554,
      "bian": 9555,
      "coba": 9556,
      "tahi": 9557,
      "pelan": 9558,
      "menghilang": 9559,
      "bala": 9560,
      "kitchen": 9561,
      "inginan": 9562,
      "menjemput": 9563,
      "rows": 9564,
      "Luar": 9565,
      "Parker": 9566,
      "Senang": 9567,
      "Aktif": 9568,
      "Mesir": 9569,
      "flesh": 9570,
      "rahmatNya": 9571,
      "joined": 9572,
      "wahyu": 9573,
      "Install": 9574,
      "Hotel": 9575,
      "Entahlah": 9576,
      "memenuhi": 9577,
      "agreed": 9578,
      "\"{": 9579,
      "Darah": 9580,
      "Fish": 9581,
      "Kas": 9582,
      "Molly": 9583,
      "Nasi": 9584,
      "Pay": 9585,
      "Qur": 9586,
      "Sounds": 9587,
      "Wit": 9588,
      "cincin": 9589,
      "dro": 9590,
      "lancar": 9591,
      "sold": 9592,
      "vamp": 9593,
      "anch": 9594,
      "ering": 9595,
      "seburuk": 9596,
      "dimulakan": 9597,
      "melompat": 9598,
      "ising": 9599,
      "keizinan": 9600,
      "revenge": 9601,
      "mencarinya": 9602,
      "berdusta": 9603,
      "membah": 9604,
      "fort": 9605,
      "bols": 9606,
      "domain": 9607,
      "manfaat": 9608,
      "tebusan": 9609,
      "plor": 9610,
      "Stone": 9611,
      "kenaan": 9612,
      "khus": 9613,
      "bakal": 9614,
      "Conf": 9615,
      "criminal": 9616,
      "Prin": 9617,
[...]
